#include "model.h"

alignas(8) const unsigned char model_data[] = {
  0x20, 0x00, 0x00, 0x00, 0x54, 0x46, 0x4c, 0x33, 0x00, 0x00, 0x00, 0x00,
  0x14, 0x00, 0x20, 0x00, 0x1c, 0x00, 0x18, 0x00, 0x14, 0x00, 0x10, 0x00,
  0x0c, 0x00, 0x00, 0x00, 0x08, 0x00, 0x04, 0x00, 0x14, 0x00, 0x00, 0x00,
  0x1c, 0x00, 0x00, 0x00, 0x80, 0x00, 0x00, 0x00, 0xd8, 0x00, 0x00, 0x00,
  0xb4, 0x13, 0x00, 0x00, 0xc4, 0x13, 0x00, 0x00, 0x90, 0x24, 0x00, 0x00,
  0x03, 0x00, 0x00, 0x00, 0x01, 0x00, 0x00, 0x00, 0x04, 0x00, 0x00, 0x00,
  0xa2, 0xea, 0xff, 0xff, 0x0c, 0x00, 0x00, 0x00, 0x1c, 0x00, 0x00, 0x00,
  0x3c, 0x00, 0x00, 0x00, 0x0f, 0x00, 0x00, 0x00, 0x73, 0x65, 0x72, 0x76,
  0x69, 0x6e, 0x67, 0x5f, 0x64, 0x65, 0x66, 0x61, 0x75, 0x6c, 0x74, 0x00,
  0x01, 0x00, 0x00, 0x00, 0x04, 0x00, 0x00, 0x00, 0x9c, 0xff, 0xff, 0xff,
  0x1c, 0x00, 0x00, 0x00, 0x04, 0x00, 0x00, 0x00, 0x08, 0x00, 0x00, 0x00,
  0x6f, 0x75, 0x74, 0x70, 0x75, 0x74, 0x5f, 0x30, 0x00, 0x00, 0x00, 0x00,
  0x01, 0x00, 0x00, 0x00, 0x04, 0x00, 0x00, 0x00, 0x32, 0xec, 0xff, 0xff,
  0x04, 0x00, 0x00, 0x00, 0x01, 0x00, 0x00, 0x00, 0x78, 0x00, 0x00, 0x00,
  0x02, 0x00, 0x00, 0x00, 0x34, 0x00, 0x00, 0x00, 0x04, 0x00, 0x00, 0x00,
  0xdc, 0xff, 0xff, 0xff, 0x1a, 0x00, 0x00, 0x00, 0x04, 0x00, 0x00, 0x00,
  0x13, 0x00, 0x00, 0x00, 0x43, 0x4f, 0x4e, 0x56, 0x45, 0x52, 0x53, 0x49,
  0x4f, 0x4e, 0x5f, 0x4d, 0x45, 0x54, 0x41, 0x44, 0x41, 0x54, 0x41, 0x00,
  0x08, 0x00, 0x0c, 0x00, 0x08, 0x00, 0x04, 0x00, 0x08, 0x00, 0x00, 0x00,
  0x19, 0x00, 0x00, 0x00, 0x04, 0x00, 0x00, 0x00, 0x13, 0x00, 0x00, 0x00,
  0x6d, 0x69, 0x6e, 0x5f, 0x72, 0x75, 0x6e, 0x74, 0x69, 0x6d, 0x65, 0x5f,
  0x76, 0x65, 0x72, 0x73, 0x69, 0x6f, 0x6e, 0x00, 0x1b, 0x00, 0x00, 0x00,
  0xd8, 0x12, 0x00, 0x00, 0xd0, 0x12, 0x00, 0x00, 0xb4, 0x12, 0x00, 0x00,
  0x84, 0x0f, 0x00, 0x00, 0xf4, 0x0e, 0x00, 0x00, 0x34, 0x0e, 0x00, 0x00,
  0xe4, 0x0d, 0x00, 0x00, 0x94, 0x0d, 0x00, 0x00, 0x8c, 0x0d, 0x00, 0x00,
  0x84, 0x0d, 0x00, 0x00, 0x74, 0x0c, 0x00, 0x00, 0x64, 0x0b, 0x00, 0x00,
  0x54, 0x0a, 0x00, 0x00, 0x44, 0x09, 0x00, 0x00, 0x34, 0x07, 0x00, 0x00,
  0x24, 0x05, 0x00, 0x00, 0x14, 0x03, 0x00, 0x00, 0x04, 0x01, 0x00, 0x00,
  0xfc, 0x00, 0x00, 0x00, 0xf4, 0x00, 0x00, 0x00, 0xd4, 0x00, 0x00, 0x00,
  0xa4, 0x00, 0x00, 0x00, 0x9c, 0x00, 0x00, 0x00, 0x94, 0x00, 0x00, 0x00,
  0x8c, 0x00, 0x00, 0x00, 0x6c, 0x00, 0x00, 0x00, 0x04, 0x00, 0x00, 0x00,
  0x0e, 0xed, 0xff, 0xff, 0x04, 0x00, 0x00, 0x00, 0x58, 0x00, 0x00, 0x00,
  0x0c, 0x00, 0x00, 0x00, 0x08, 0x00, 0x0e, 0x00, 0x08, 0x00, 0x04, 0x00,
  0x08, 0x00, 0x00, 0x00, 0x10, 0x00, 0x00, 0x00, 0x28, 0x00, 0x00, 0x00,
  0x00, 0x00, 0x06, 0x00, 0x08, 0x00, 0x04, 0x00, 0x06, 0x00, 0x00, 0x00,
  0x04, 0x00, 0x00, 0x00, 0x01, 0x00, 0x00, 0x00, 0xeb, 0x03, 0x00, 0x00,
  0x00, 0x00, 0x0a, 0x00, 0x10, 0x00, 0x0c, 0x00, 0x08, 0x00, 0x04, 0x00,
  0x0a, 0x00, 0x00, 0x00, 0x03, 0x00, 0x00, 0x00, 0x02, 0x00, 0x00, 0x00,
  0x04, 0x00, 0x00, 0x00, 0x06, 0x00, 0x00, 0x00, 0x32, 0x2e, 0x31, 0x35,
  0x2e, 0x31, 0x00, 0x00, 0x72, 0xed, 0xff, 0xff, 0x04, 0x00, 0x00, 0x00,
  0x10, 0x00, 0x00, 0x00, 0x32, 0x2e, 0x30, 0x2e, 0x30, 0x00, 0x00, 0x00,
  0x00, 0x00, 0x00, 0x00, 0x00, 0x00, 0x00, 0x00, 0xec, 0xdd, 0xff, 0xff,
  0xf0, 0xdd, 0xff, 0xff, 0xf4, 0xdd, 0xff, 0xff, 0x9a, 0xed, 0xff, 0xff,
  0x04, 0x00, 0x00, 0x00, 0x20, 0x00, 0x00, 0x00, 0xff, 0x7f, 0xff, 0x7f,
  0xff, 0x7f, 0xff, 0x7f, 0xff, 0x7f, 0xff, 0x7f, 0xff, 0x7f, 0xff, 0x7f,
  0xff, 0x7f, 0xff, 0x7f, 0xff, 0x7f, 0xff, 0x7f, 0xff, 0x7f, 0xff, 0x7f,
  0xff, 0x7f, 0xff, 0x7f, 0xc6, 0xed, 0xff, 0xff, 0x04, 0x00, 0x00, 0x00,
  0x10, 0x00, 0x00, 0x00, 0xd9, 0xd9, 0xd9, 0xd9, 0xd9, 0xd9, 0xd9, 0xd9,
  0xd9, 0xd9, 0xd9, 0xd9, 0xd9, 0xd9, 0xd9, 0xd9, 0x40, 0xde, 0xff, 0xff,
  0x44, 0xde, 0xff, 0xff, 0xea, 0xed, 0xff, 0xff, 0x04, 0x00, 0x00, 0x00,
  0x00, 0x02, 0x00, 0x00, 0x99, 0x36, 0x21, 0x6f, 0x6e, 0x60, 0xb3, 0x31,
  0x04, 0x36, 0xfa, 0x5d, 0xf3, 0x6b, 0x86, 0xce, 0x44, 0xe5, 0xd0, 0x2a,
  0x5e, 0x45, 0xc6, 0x85, 0xea, 0x8c, 0x10, 0x11, 0x2a, 0x1b, 0xe0, 0xa2,
  0x92, 0xc8, 0x76, 0xcc, 0xf6, 0x97, 0xcf, 0x90, 0x5c, 0xb7, 0xa4, 0x0a,
  0x2b, 0x40, 0x1b, 0xc8, 0xf4, 0xb5, 0x88, 0x66, 0x7c, 0x83, 0xee, 0x25,
  0x42, 0xa1, 0x78, 0x0b, 0x6c, 0x92, 0x69, 0x57, 0xb1, 0x6c, 0xce, 0xeb,
  0xf1, 0x31, 0x79, 0x7c, 0x4f, 0x9f, 0x87, 0x95, 0x49, 0x53, 0x57, 0xcb,
  0xc2, 0x89, 0x83, 0x94, 0xea, 0x69, 0x9e, 0xc9, 0xde, 0x5b, 0x96, 0x62,
  0xbe, 0xad, 0x06, 0x92, 0x12, 0xef, 0x93, 0xdd, 0xb9, 0xab, 0xed, 0x03,
  0xf6, 0xf9, 0x40, 0x30, 0xac, 0xb8, 0xcd, 0xe5, 0x0f, 0xdc, 0x5d, 0x5d,
  0x9e, 0xf3, 0xed, 0xed, 0x6e, 0xb0, 0xae, 0x83, 0x7b, 0xae, 0x1c, 0x99,
  0xfe, 0x78, 0x27, 0x6f, 0x4b, 0x2e, 0x0c, 0xb6, 0xb8, 0x34, 0xe5, 0x71,
  0xf5, 0xe7, 0x92, 0x66, 0x87, 0x39, 0xb6, 0x40, 0x33, 0x76, 0x78, 0xea,
  0x3d, 0x01, 0xd9, 0x35, 0x0b, 0x2e, 0x5a, 0x99, 0x9e, 0xa2, 0xb2, 0xd7,
  0xde, 0x83, 0x88, 0xc7, 0xc2, 0x1e, 0x11, 0xe7, 0x8b, 0x94, 0xc5, 0x75,
  0x25, 0x8f, 0xbf, 0x77, 0x60, 0x8e, 0x2e, 0xae, 0x72, 0x1f, 0x36, 0x50,
  0x03, 0x84, 0x7f, 0xfd, 0x62, 0x02, 0x5c, 0xbc, 0x39, 0x33, 0xb9, 0x02,
  0x0d, 0xa4, 0x92, 0x07, 0x1c, 0xd5, 0x4d, 0xbd, 0x05, 0xcd, 0x6d, 0x96,
  0x2d, 0x1a, 0x03, 0x1d, 0xbe, 0x18, 0xc2, 0xb3, 0x6b, 0x87, 0xcc, 0x65,
  0x03, 0xb5, 0x0d, 0x51, 0xda, 0x38, 0xa9, 0x8d, 0xa3, 0x35, 0x8d, 0xa3,
  0x50, 0xcb, 0xb7, 0x70, 0xd5, 0x90, 0xa9, 0x93, 0x52, 0xb1, 0x8e, 0xb9,
  0x27, 0x86, 0xf9, 0x28, 0x5c, 0x8c, 0xd2, 0x42, 0xcf, 0x1b, 0xdb, 0x20,
  0xb9, 0x56, 0x98, 0x6f, 0x5e, 0x9c, 0x8d, 0x31, 0x04, 0x8d, 0xf1, 0x60,
  0x63, 0x9e, 0x61, 0xbf, 0x97, 0x8c, 0x2b, 0x96, 0x5d, 0xf3, 0xc8, 0x5e,
  0x0d, 0x2d, 0x93, 0x2b, 0x71, 0x2b, 0x00, 0x3f, 0x67, 0x1c, 0x54, 0x2f,
  0x56, 0x9d, 0x08, 0x8c, 0x1e, 0x48, 0x3a, 0xf8, 0xaf, 0xab, 0x54, 0x71,
  0xd1, 0x1e, 0xc3, 0x57, 0x5c, 0xfa, 0xec, 0x7e, 0xdc, 0x21, 0xa4, 0x58,
  0x04, 0x04, 0xda, 0xe0, 0x91, 0xf6, 0x2d, 0x8c, 0x9c, 0xde, 0x2a, 0x55,
  0xab, 0x47, 0x2b, 0x86, 0x9e, 0x4b, 0xf5, 0x0a, 0xe3, 0x6c, 0x98, 0x87,
  0xd1, 0xae, 0xea, 0xda, 0x38, 0x8d, 0xda, 0x18, 0x58, 0x4f, 0x97, 0x2a,
  0xd5, 0xe3, 0xd2, 0x0e, 0xc1, 0x3e, 0x98, 0xb5, 0x26, 0x43, 0x00, 0x6f,
  0xc7, 0x31, 0x51, 0x22, 0x67, 0x50, 0xcf, 0x75, 0x51, 0xb7, 0xbe, 0xdd,
  0x92, 0x14, 0x6d, 0xe6, 0xe7, 0x4b, 0x0c, 0x55, 0x8c, 0x31, 0xdc, 0x7d,
  0x1f, 0xda, 0x48, 0xc4, 0xe2, 0x9a, 0x81, 0x4d, 0x8d, 0x37, 0x98, 0x5b,
  0xcd, 0x0f, 0x3e, 0x40, 0xab, 0xed, 0xe3, 0x99, 0xfd, 0x43, 0x1f, 0xa1,
  0x9d, 0x9e, 0x3d, 0x66, 0x69, 0xfe, 0x4d, 0xc7, 0x56, 0xbb, 0xb8, 0xf5,
  0x26, 0x28, 0x36, 0xad, 0xf4, 0x07, 0x35, 0xb7, 0xbd, 0x82, 0xe9, 0x42,
  0x44, 0x3e, 0xa3, 0x99, 0xa0, 0x0d, 0xdd, 0xc3, 0xb1, 0x0f, 0x14, 0xff,
  0x12, 0xf1, 0xbd, 0x3d, 0x36, 0x12, 0x0f, 0x2e, 0xe0, 0x89, 0x91, 0x19,
  0x8e, 0x12, 0x21, 0x54, 0xe3, 0x57, 0xfc, 0xe9, 0x84, 0xa2, 0x79, 0xa0,
  0xe1, 0x76, 0x19, 0x32, 0x23, 0x94, 0xbc, 0x2d, 0xd3, 0x71, 0xbe, 0xa6,
  0x22, 0x3c, 0xfa, 0x93, 0x29, 0x07, 0x9b, 0x0c, 0x90, 0x4b, 0x71, 0xa4,
  0x4a, 0xec, 0x8d, 0xb7, 0x68, 0xc8, 0xa0, 0xfc, 0x10, 0xfa, 0xce, 0xd9,
  0xf6, 0xef, 0xff, 0xff, 0x04, 0x00, 0x00, 0x00, 0x00, 0x02, 0x00, 0x00,
  0xe8, 0x02, 0xb4, 0x15, 0xc5, 0xfb, 0x8e, 0x50, 0x48, 0x69, 0xca, 0x82,
  0xc1, 0x3a, 0xe4, 0x67, 0x78, 0xa5, 0x8b, 0xe8, 0x34, 0xb3, 0xc0, 0x8f,
  0x50, 0x68, 0x83, 0xe1, 0xbd, 0x1d, 0xc1, 0x5e, 0xc4, 0x20, 0xaf, 0x13,
  0x13, 0xe7, 0xf3, 0xf8, 0x5a, 0x5c, 0xf6, 0xa1, 0x3b, 0x47, 0xcd, 0x65,
  0x85, 0x66, 0x0b, 0x2d, 0xe1, 0xd2, 0x3e, 0x16, 0xbd, 0xb1, 0xea, 0xe8,
  0xfc, 0xf7, 0x9a, 0xb6, 0x86, 0xc8, 0x08, 0xf1, 0x9e, 0xf3, 0x7e, 0xfa,
  0x5c, 0x70, 0x4b, 0xa9, 0x92, 0xcb, 0x9e, 0xde, 0x97, 0x07, 0xa7, 0x0f,
  0x0a, 0x45, 0x29, 0xd7, 0x84, 0x51, 0x24, 0x53, 0xcb, 0x8c, 0x8f, 0x67,
  0xaf, 0x3a, 0x2e, 0x02, 0xed, 0xe0, 0x3e, 0x05, 0xc2, 0x4a, 0x84, 0xc8,
  0x44, 0x5c, 0x58, 0x35, 0x56, 0x77, 0xf9, 0xbb, 0x5c, 0xaa, 0x7c, 0xd7,
  0xe1, 0xe8, 0x6f, 0x47, 0x59, 0x4a, 0xf4, 0xf4, 0x46, 0xf9, 0x8d, 0xf9,
  0xae, 0xa3, 0x35, 0x11, 0x27, 0x14, 0x67, 0xac, 0x40, 0x35, 0xdb, 0x9b,
  0x28, 0x86, 0xfb, 0x58, 0x46, 0x63, 0xaf, 0xb1, 0xfd, 0x56, 0x63, 0x68,
  0x73, 0xfa, 0xee, 0x1e, 0x34, 0x7c, 0x8d, 0xe9, 0xe3, 0xcf, 0x42, 0x35,
  0x22, 0x16, 0xa8, 0x5d, 0x8d, 0x65, 0xe9, 0x15, 0xa8, 0x87, 0xbd, 0x6c,
  0x9d, 0x11, 0x81, 0x92, 0xec, 0x39, 0x30, 0x0f, 0xb0, 0x23, 0xaf, 0xc7,
  0x0b, 0xec, 0x70, 0x22, 0x72, 0x2b, 0x99, 0x3e, 0x5d, 0xe2, 0xc7, 0x29,
  0x33, 0x92, 0x81, 0x36, 0xe0, 0x25, 0xa6, 0x18, 0x10, 0x8a, 0xd7, 0x8d,
  0xf0, 0x4f, 0xca, 0x7b, 0xb3, 0x41, 0xc8, 0x71, 0x6c, 0x34, 0x64, 0x99,
  0x4d, 0xef, 0xfc, 0x20, 0x98, 0x0f, 0xe1, 0x31, 0xae, 0x58, 0xd7, 0x3b,
  0xbf, 0x64, 0x96, 0xc7, 0x98, 0x82, 0xe1, 0xc8, 0x53, 0x35, 0xc3, 0x19,
  0xdc, 0x4e, 0x08, 0x49, 0xc8, 0x51, 0x5d, 0x3f, 0x53, 0x04, 0xab, 0x61,
  0x0d, 0xe6, 0x7c, 0x3b, 0x9a, 0xa7, 0x6b, 0x04, 0x09, 0x7d, 0xea, 0x8b,
  0x60, 0xb2, 0xd4, 0xc4, 0x74, 0xf3, 0x1d, 0x1f, 0x31, 0x62, 0xba, 0xcd,
  0x92, 0x72, 0x30, 0xfc, 0xff, 0x90, 0xb1, 0xd0, 0x13, 0x1d, 0xfd, 0x4b,
  0x2e, 0x50, 0xa7, 0x12, 0x47, 0xf6, 0x0c, 0x13, 0x60, 0x7d, 0x05, 0x3c,
  0x65, 0x29, 0x2b, 0x90, 0xd9, 0x8e, 0x29, 0xf2, 0xe5, 0x36, 0xff, 0xec,
  0x94, 0xf2, 0x06, 0xd5, 0x31, 0x02, 0x14, 0x3a, 0xf9, 0x21, 0x4a, 0x37,
  0xdd, 0xe0, 0x6f, 0x11, 0x4f, 0x2a, 0x00, 0x85, 0x38, 0x90, 0xd5, 0x28,
  0xfa, 0x62, 0x19, 0x78, 0xd1, 0x95, 0x5f, 0xff, 0xc2, 0x60, 0x5a, 0x9e,
  0xbc, 0x39, 0xad, 0x22, 0xd3, 0xad, 0xe0, 0x61, 0xbc, 0xef, 0x60, 0x77,
  0x22, 0xdd, 0x7f, 0x25, 0x39, 0x53, 0x27, 0x16, 0x01, 0x4b, 0xc5, 0xe0,
  0xe5, 0xb8, 0x28, 0x6b, 0xdf, 0xf7, 0x18, 0xcb, 0x28, 0xb3, 0x46, 0x08,
  0x4a, 0xd8, 0xac, 0x9f, 0xc4, 0x39, 0x64, 0x96, 0x98, 0xe4, 0x4d, 0x1b,
  0x08, 0xf9, 0x5c, 0xda, 0xd6, 0xb3, 0xc8, 0xab, 0x51, 0xc2, 0xf2, 0xb2,
  0x8b, 0x7b, 0x4e, 0x11, 0x68, 0xe3, 0xca, 0xe0, 0x85, 0xb9, 0x4c, 0x44,
  0x83, 0xf3, 0x7b, 0x05, 0x7c, 0x47, 0xa6, 0xb9, 0x7d, 0x99, 0x2c, 0x2a,
  0xc8, 0xe1, 0xa6, 0x35, 0x57, 0xe6, 0x53, 0x39, 0xcb, 0x5b, 0x33, 0xc8,
  0xa9, 0x22, 0xbf, 0x4c, 0x89, 0xad, 0x38, 0x60, 0x88, 0x27, 0xc5, 0x1b,
  0xfb, 0x51, 0xf9, 0xcc, 0x3b, 0xdd, 0x55, 0x42, 0x14, 0x4e, 0x8d, 0x9b,
  0x8d, 0xf6, 0xb0, 0x38, 0xd8, 0x74, 0xba, 0x91, 0x16, 0xa6, 0xc2, 0x41,
  0x7f, 0x86, 0x99, 0xa1, 0xf4, 0x57, 0x67, 0x83, 0x33, 0x43, 0x73, 0xee,
  0x7c, 0x01, 0xef, 0x76, 0x8c, 0x5a, 0xe2, 0x05, 0x02, 0xf2, 0xff, 0xff,
  0x04, 0x00, 0x00, 0x00, 0x00, 0x02, 0x00, 0x00, 0x4c, 0x70, 0x41, 0xaf,
  0xe1, 0x62, 0x4d, 0xc2, 0x07, 0x18, 0x99, 0xb6, 0xdd, 0x95, 0x9f, 0xeb,
  0xe2, 0x7c, 0x68, 0xd5, 0x16, 0x1c, 0x09, 0x8a, 0x33, 0x13, 0x00, 0x9d,
  0x4e, 0x62, 0xcf, 0x32, 0x2d, 0x00, 0x46, 0x1a, 0x88, 0xeb, 0xbc, 0x0d,
  0x6c, 0xc4, 0xfe, 0x79, 0x1a, 0x93, 0x08, 0x82, 0xd3, 0x13, 0x56, 0xf6,
  0xcb, 0xe7, 0x54, 0x88, 0xf3, 0x3f, 0xaf, 0x9a, 0x20, 0xd2, 0x2c, 0x02,
  0xd9, 0x85, 0xb4, 0xfb, 0x71, 0xcd, 0xf7, 0x5c, 0xe2, 0x20, 0xd4, 0xe4,
  0x5a, 0xae, 0x8f, 0xc3, 0x32, 0x49, 0x7d, 0xa2, 0x2e, 0x3d, 0x56, 0xb6,
  0x3c, 0x4e, 0x48, 0x08, 0x11, 0x8a, 0xa3, 0xe2, 0xa0, 0x64, 0x1e, 0xb7,
  0x9d, 0x30, 0xda, 0x56, 0x7d, 0xc3, 0xc8, 0x49, 0xf2, 0x6d, 0xe8, 0xc9,
  0xbf, 0x60, 0x79, 0xc1, 0x48, 0x82, 0x76, 0x56, 0x2d, 0xe1, 0xc9, 0x2c,
  0x9e, 0xa2, 0x76, 0xc1, 0x97, 0xa2, 0x1c, 0x9d, 0x07, 0x5d, 0x9f, 0x5a,
  0x60, 0x1d, 0xc8, 0x8c, 0x49, 0xd9, 0xed, 0x0e, 0xd9, 0xe4, 0xa5, 0x5f,
  0xdc, 0x5a, 0x36, 0x7e, 0xa0, 0x43, 0xaa, 0x32, 0x20, 0x04, 0xe0, 0x43,
  0x6d, 0x44, 0xa2, 0xfc, 0x91, 0x36, 0x29, 0x3d, 0x01, 0x94, 0x03, 0x56,
  0x64, 0xa5, 0x42, 0x65, 0x3a, 0x94, 0x28, 0x66, 0xd8, 0x0b, 0x56, 0x0f,
  0x33, 0x9a, 0x79, 0x58, 0x0f, 0xe6, 0xe3, 0x66, 0xbc, 0x72, 0x10, 0x0d,
  0x58, 0x7c, 0x62, 0x0b, 0xe8, 0xea, 0x5b, 0x44, 0x74, 0xec, 0x3f, 0xe4,
  0xd9, 0x7d, 0xb1, 0x1f, 0xfa, 0x39, 0xcd, 0x2a, 0xeb, 0x3f, 0x7b, 0x78,
  0x38, 0x2b, 0x0a, 0x30, 0x63, 0xd0, 0xa3, 0x94, 0xb2, 0x0a, 0x1b, 0x59,
  0x7a, 0x15, 0x32, 0xde, 0xea, 0x2b, 0x57, 0xd5, 0x7d, 0x69, 0xc8, 0x54,
  0x6a, 0x68, 0xa1, 0xf9, 0x7b, 0xbf, 0xae, 0x82, 0x24, 0x35, 0xc0, 0x6f,
  0xd9, 0xc2, 0x97, 0xe8, 0x6a, 0x79, 0xb2, 0x0d, 0xc6, 0xd3, 0x9b, 0x3e,
  0x0b, 0x1e, 0xf4, 0xfd, 0xd4, 0xee, 0xf4, 0x53, 0x2b, 0xe2, 0x76, 0x9c,
  0xf1, 0x4a, 0xa2, 0xe5, 0x7a, 0xb8, 0x1e, 0xa2, 0xbe, 0x54, 0x37, 0x45,
  0x7f, 0x4b, 0xa2, 0xc0, 0xc5, 0x5f, 0xcb, 0x40, 0x62, 0x5b, 0xf5, 0x04,
  0xba, 0xbd, 0x8a, 0xbd, 0xec, 0xe3, 0x9a, 0x64, 0xdf, 0x51, 0x95, 0x37,
  0xbe, 0xb1, 0x66, 0xbd, 0xb4, 0xeb, 0xf8, 0x62, 0xc4, 0x40, 0xe2, 0x7d,
  0xcc, 0xcd, 0x47, 0x05, 0xba, 0xe8, 0x30, 0xa6, 0x1f, 0x61, 0x55, 0xf1,
  0x5b, 0xcd, 0x7f, 0x5b, 0x5d, 0x00, 0x3d, 0x05, 0x77, 0x82, 0x7d, 0x96,
  0x5f, 0x34, 0x00, 0xe1, 0xf4, 0x3a, 0x00, 0xa0, 0x65, 0x1f, 0x13, 0x70,
  0x3f, 0x89, 0x3c, 0xef, 0x55, 0xcf, 0xb6, 0xa3, 0x85, 0x79, 0x03, 0x63,
  0x60, 0x15, 0xa4, 0x81, 0x37, 0x23, 0xec, 0x7b, 0xfe, 0x90, 0xba, 0xbf,
  0xdc, 0x03, 0x61, 0xcd, 0xe2, 0x9d, 0x53, 0xf3, 0xc2, 0x8f, 0x79, 0x7a,
  0xda, 0x84, 0x19, 0x59, 0x2a, 0x7d, 0xb7, 0xe7, 0x01, 0x1c, 0x13, 0xdf,
  0xf8, 0x24, 0xaa, 0xff, 0x9f, 0xae, 0x1d, 0x8a, 0x3c, 0x83, 0x2e, 0xc0,
  0x17, 0x82, 0x90, 0x28, 0x8b, 0xdd, 0x95, 0x95, 0xde, 0x33, 0x6d, 0xfa,
  0xd1, 0xf1, 0xaf, 0x3e, 0x09, 0x4b, 0x48, 0x6f, 0x62, 0x01, 0xd6, 0xe8,
  0x33, 0x06, 0xf9, 0xa8, 0x8b, 0x99, 0x6e, 0xcf, 0x4e, 0x17, 0xe3, 0x98,
  0xb9, 0x71, 0x41, 0x55, 0x37, 0xd4, 0x92, 0x64, 0x1e, 0xdf, 0x26, 0x23,
  0x0c, 0x0d, 0x4b, 0xd9, 0xf9, 0xa0, 0x8b, 0xee, 0xcd, 0xb7, 0x33, 0x79,
  0x00, 0x5a, 0xc3, 0x2f, 0x21, 0x6b, 0x06, 0xb6, 0xbb, 0x20, 0xee, 0x62,
  0xcd, 0xbb, 0x61, 0x46, 0xf8, 0x17, 0xa8, 0x14, 0xd5, 0x3d, 0xc0, 0xd2,
  0xeb, 0x31, 0x11, 0xb8, 0x0e, 0xf4, 0xff, 0xff, 0x04, 0x00, 0x00, 0x00,
  0x00, 0x02, 0x00, 0x00, 0xdd, 0x52, 0x95, 0xeb, 0x77, 0x20, 0xd2, 0x5a,
  0x7e, 0x07, 0xf2, 0x30, 0xa7, 0x03, 0x99, 0xf6, 0x72, 0xe6, 0x1b, 0x25,
  0x59, 0xda, 0xd2, 0x0c, 0x08, 0x56, 0x66, 0xc5, 0xd0, 0x98, 0x0e, 0x11,
  0xb9, 0x39, 0x2b, 0xa7, 0x46, 0xe0, 0x3e, 0x6f, 0xe4, 0x85, 0x74, 0xeb,
  0xd1, 0xe3, 0x72, 0x60, 0x8d, 0x59, 0xca, 0x6a, 0xdf, 0xb7, 0x2a, 0x14,
  0xe0, 0xab, 0x7e, 0x17, 0x51, 0x6e, 0xab, 0x8f, 0x0e, 0x43, 0xc4, 0xd9,
  0x54, 0x6d, 0xd1, 0xfc, 0x93, 0x21, 0x97, 0xe3, 0x0a, 0x26, 0x23, 0x8e,
  0xe5, 0xef, 0x32, 0x7a, 0xda, 0x50, 0x89, 0x94, 0xcf, 0xd4, 0x57, 0xfe,
  0x67, 0xb2, 0x9d, 0xdf, 0xa0, 0x44, 0x48, 0x4b, 0xe7, 0x6e, 0x94, 0xa9,
  0x3a, 0x67, 0x2e, 0x14, 0xd1, 0x30, 0x9a, 0x1e, 0x74, 0x23, 0xa2, 0xe3,
  0x71, 0xa6, 0xa9, 0xe0, 0x05, 0xae, 0x7e, 0x2b, 0x63, 0xed, 0x43, 0x06,
  0x7c, 0x65, 0xf9, 0xbc, 0x60, 0x4f, 0x5e, 0xf9, 0xeb, 0x38, 0xd2, 0x99,
  0xfc, 0xcd, 0xaa, 0xf4, 0xee, 0x08, 0x95, 0x5d, 0x78, 0xfc, 0x54, 0xcd,
  0x25, 0xd6, 0xd3, 0x6b, 0x04, 0xbe, 0xdf, 0x56, 0x86, 0xca, 0xa6, 0xbe,
  0x60, 0xb9, 0x60, 0x3a, 0x32, 0xa8, 0xca, 0x2d, 0x08, 0xb5, 0xc3, 0xa3,
  0xa0, 0x6b, 0x21, 0x6f, 0x30, 0xb7, 0x3b, 0xd6, 0xa5, 0x9c, 0xcc, 0x36,
  0x2a, 0xe4, 0x43, 0x04, 0xa3, 0x55, 0x05, 0x9c, 0x11, 0x10, 0xac, 0x05,
  0x32, 0x08, 0x3b, 0x0e, 0xf6, 0x3c, 0xab, 0xa4, 0xbd, 0x8e, 0x16, 0x9d,
  0x61, 0xc3, 0xd9, 0xd3, 0xbc, 0xdf, 0x23, 0x91, 0x31, 0x43, 0xd3, 0x79,
  0xda, 0x74, 0xcf, 0xbd, 0xb1, 0x1e, 0x15, 0x9a, 0xbd, 0xb7, 0x0b, 0x7e,
  0x65, 0x33, 0x7a, 0xf4, 0xdc, 0x91, 0xae, 0x2d, 0xb0, 0x48, 0x98, 0xa6,
  0x3c, 0xfa, 0x91, 0x27, 0xfd, 0xb5, 0xb5, 0x6b, 0x4c, 0x83, 0x32, 0x1b,
  0x9b, 0x07, 0x20, 0xc2, 0xff, 0x45, 0xdf, 0xc6, 0x22, 0xd6, 0x01, 0x0b,
  0x49, 0xa0, 0xad, 0x77, 0x1a, 0x17, 0xd5, 0x5a, 0x2b, 0xb2, 0x67, 0x88,
  0x8c, 0x92, 0x26, 0x03, 0xe9, 0xe4, 0x5c, 0xda, 0x06, 0xd8, 0xf6, 0x78,
  0x8a, 0xbc, 0xbb, 0x27, 0x95, 0x23, 0xdd, 0xba, 0x75, 0x39, 0x08, 0xff,
  0xea, 0x0a, 0x6c, 0x60, 0xa7, 0x71, 0xee, 0xf4, 0x93, 0xe3, 0x81, 0xfc,
  0xc5, 0xa6, 0x89, 0xe9, 0xec, 0x6e, 0x7a, 0x4f, 0x8b, 0x04, 0x06, 0x78,
  0x31, 0x7c, 0xa7, 0x0b, 0xe7, 0xa1, 0xf5, 0x42, 0xd1, 0xb5, 0x8a, 0x43,
  0xf2, 0x71, 0x4e, 0x1e, 0xab, 0xa5, 0xeb, 0x47, 0x2f, 0xbd, 0x42, 0x24,
  0xe1, 0xbd, 0x86, 0xc9, 0xa1, 0xc4, 0x7c, 0x85, 0xfc, 0x2c, 0x30, 0x2d,
  0x0e, 0xfd, 0x39, 0x49, 0xbf, 0x11, 0xaa, 0x3b, 0x57, 0x9e, 0xb7, 0x53,
  0xd8, 0xa6, 0xfd, 0x6d, 0xdf, 0xa1, 0x1b, 0xaf, 0xf9, 0xb7, 0xf7, 0x0b,
  0x57, 0x77, 0x63, 0xf6, 0xf4, 0x97, 0xcd, 0x4d, 0x92, 0x55, 0xa1, 0xe3,
  0xc2, 0xe9, 0x12, 0x9a, 0x73, 0xf0, 0x89, 0x49, 0x90, 0x5d, 0x52, 0x76,
  0x6a, 0xba, 0xf7, 0x2b, 0x04, 0x1d, 0x9c, 0xc8, 0xb2, 0xfe, 0x53, 0x7c,
  0xb1, 0xd2, 0x7a, 0xad, 0x67, 0x99, 0x95, 0x4a, 0x2e, 0x48, 0x28, 0xae,
  0xf4, 0x9f, 0x26, 0xcd, 0x4e, 0x59, 0x57, 0xdc, 0xd5, 0xba, 0xd9, 0x69,
  0x90, 0x50, 0x47, 0x8f, 0x16, 0x0e, 0x9f, 0xc4, 0xe2, 0x90, 0x45, 0x95,
  0xb2, 0xf9, 0x2d, 0x25, 0x7c, 0x0d, 0xba, 0x02, 0x48, 0x57, 0xbe, 0x44,
  0x59, 0xb0, 0x87, 0x84, 0x8f, 0xc9, 0x76, 0xc5, 0xb1, 0x2e, 0x7f, 0x69,
  0xa6, 0x18, 0x45, 0xe9, 0x12, 0xc7, 0xd1, 0xc5, 0x74, 0x5b, 0xe6, 0xec,
  0x02, 0x2d, 0x3b, 0xd2, 0x50, 0x29, 0x71, 0x5f, 0x0a, 0x75, 0x3f, 0x2a,
  0x1a, 0xf6, 0xff, 0xff, 0x04, 0x00, 0x00, 0x00, 0x00, 0x01, 0x00, 0x00,
  0x39, 0xda, 0x42, 0x04, 0xd0, 0x12, 0x22, 0xd1, 0xe8, 0x15, 0xbd, 0x0e,
  0x40, 0x05, 0x2b, 0xf2, 0xdb, 0xed, 0x3a, 0xa5, 0x9c, 0x2e, 0x2f, 0x09,
  0xcd, 0x20, 0xdf, 0x0f, 0xde, 0xe2, 0x0a, 0x0e, 0x08, 0x4d, 0xb7, 0xf0,
  0xeb, 0xd7, 0x01, 0x14, 0xe4, 0x0d, 0x22, 0xe0, 0x0e, 0x90, 0x1f, 0x18,
  0x1b, 0xc4, 0xef, 0x0f, 0xe4, 0xa9, 0xee, 0xb0, 0xc3, 0xb4, 0x14, 0xc4,
  0x16, 0x15, 0x18, 0xf1, 0x39, 0x25, 0xbb, 0x29, 0xc6, 0xf9, 0xfa, 0xdf,
  0x1d, 0x06, 0x2a, 0xd4, 0x1f, 0xfe, 0x27, 0x24, 0xf9, 0x0c, 0xfd, 0x01,
  0xfa, 0x4b, 0xe9, 0xf4, 0x0b, 0x0b, 0x00, 0x0b, 0xcb, 0x9e, 0x1a, 0x18,
  0x29, 0xfa, 0x02, 0x18, 0x19, 0x0c, 0x6e, 0x1e, 0x03, 0x20, 0xd4, 0x2e,
  0x20, 0xe2, 0xe0, 0xfd, 0x33, 0xf7, 0x37, 0x4a, 0x29, 0x0a, 0x07, 0xc2,
  0x7f, 0x44, 0x0a, 0xf0, 0xf6, 0xf7, 0xef, 0xdc, 0xfd, 0xfc, 0x0a, 0xdb,
  0x2e, 0xe6, 0x34, 0x08, 0xf4, 0xea, 0xf6, 0x00, 0xb3, 0x07, 0x2d, 0x30,
  0x0d, 0xee, 0x26, 0xd4, 0x18, 0x24, 0xed, 0x05, 0x10, 0xf6, 0x03, 0xe5,
  0x3b, 0xea, 0xc0, 0xf0, 0x23, 0x09, 0x4a, 0xcb, 0x17, 0xde, 0xb7, 0x22,
  0xc2, 0xb1, 0xf1, 0xc6, 0x06, 0xee, 0x11, 0xf3, 0x45, 0xf4, 0xc7, 0x4e,
  0x20, 0x1d, 0xc6, 0x39, 0xd1, 0xd8, 0xce, 0xf4, 0xfe, 0xd4, 0x00, 0x2e,
  0xbe, 0xc6, 0x08, 0x05, 0xf1, 0x10, 0x2d, 0xcb, 0x27, 0xe5, 0xc2, 0xe3,
  0xee, 0xe2, 0xfe, 0x0a, 0xcd, 0x3c, 0x2a, 0xd3, 0x13, 0x2c, 0x48, 0xe3,
  0xeb, 0xec, 0x4a, 0xcb, 0x1c, 0xe4, 0xb9, 0x31, 0xb2, 0x07, 0xd6, 0x12,
  0xf3, 0xeb, 0xc9, 0x10, 0xcb, 0x32, 0xe1, 0xf1, 0x31, 0x20, 0xd5, 0xa1,
  0xf9, 0x15, 0x0c, 0x10, 0xd3, 0x00, 0x0f, 0x05, 0x0f, 0xbb, 0xc7, 0x26,
  0xbe, 0xd1, 0xe2, 0x3b, 0x26, 0xf7, 0xff, 0xff, 0x04, 0x00, 0x00, 0x00,
  0x00, 0x01, 0x00, 0x00, 0x42, 0x9d, 0xf4, 0x1e, 0xba, 0xef, 0x25, 0xd0,
  0xdf, 0x28, 0x0c, 0xeb, 0x23, 0xf9, 0xfa, 0xa0, 0x05, 0x18, 0xef, 0xbb,
  0x5e, 0x5c, 0xab, 0x31, 0x34, 0x1a, 0xbb, 0xec, 0xd7, 0x36, 0x35, 0xbb,
  0xef, 0xaa, 0xbf, 0xab, 0x5e, 0x0b, 0xfe, 0xd8, 0xe8, 0x0a, 0x02, 0x41,
  0x1f, 0xf3, 0x16, 0xce, 0xf1, 0xd3, 0xfd, 0xf8, 0x0c, 0xfc, 0xe0, 0x03,
  0x29, 0x87, 0xd2, 0x68, 0x09, 0xde, 0xfb, 0xb1, 0x99, 0xec, 0xc1, 0x01,
  0x63, 0xd5, 0x21, 0xc8, 0xe3, 0x26, 0xf6, 0xf2, 0xe7, 0xe6, 0x4d, 0x19,
  0x03, 0x9b, 0xff, 0x03, 0xe1, 0xd0, 0xc6, 0x2e, 0x25, 0x35, 0xd0, 0xe1,
  0x2c, 0xea, 0xd9, 0x61, 0x3a, 0x00, 0x01, 0x36, 0x15, 0xc6, 0x3c, 0x15,
  0xbc, 0x06, 0xf9, 0x0e, 0xfb, 0x22, 0xe3, 0x16, 0x02, 0x5c, 0x24, 0x0c,
  0x0e, 0xda, 0xd5, 0xd5, 0x43, 0xcd, 0xca, 0x12, 0x1b, 0x22, 0xf0, 0x3d,
  0x08, 0xfe, 0x3c, 0xc2, 0x34, 0xa1, 0xcc, 0x15, 0xdc, 0x0f, 0xc8, 0x24,
  0x2f, 0xd5, 0x3f, 0xfe, 0xfb, 0x07, 0xef, 0xe0, 0xf4, 0xf4, 0xfb, 0x85,
  0x03, 0xcf, 0xd8, 0x55, 0xf0, 0x39, 0x37, 0x79, 0xe9, 0x11, 0x18, 0xd7,
  0xec, 0xff, 0xdb, 0xe4, 0x01, 0x29, 0xd1, 0xce, 0xa8, 0x18, 0x39, 0xec,
  0x01, 0x41, 0xfe, 0xe1, 0x0a, 0x1d, 0xf4, 0xa9, 0xdb, 0x41, 0xc9, 0xfd,
  0xe0, 0xb8, 0xfc, 0xbf, 0xe5, 0x85, 0x3d, 0x07, 0x1d, 0xe7, 0xf5, 0x1e,
  0x3d, 0x5f, 0x3a, 0xe3, 0xab, 0xdb, 0x24, 0x2a, 0x10, 0x11, 0x1a, 0xd7,
  0xbe, 0x14, 0x22, 0x09, 0x09, 0x0c, 0xe3, 0x1c, 0xf4, 0x01, 0x31, 0x08,
  0xaa, 0xf1, 0xf9, 0x17, 0x07, 0x81, 0x13, 0x45, 0x2d, 0x2f, 0xb7, 0xb4,
  0xca, 0xf9, 0x22, 0x12, 0x63, 0xbc, 0xf4, 0x99, 0x04, 0x1f, 0xa6, 0x02,
  0x40, 0xf5, 0x0b, 0xd8, 0x12, 0xfb, 0x08, 0x55, 0x32, 0xf8, 0xff, 0xff,
  0x04, 0x00, 0x00, 0x00, 0x00, 0x01, 0x00, 0x00, 0xe3, 0x10, 0x0e, 0xfb,
  0xf6, 0xc7, 0x03, 0xa0, 0x34, 0x17, 0x05, 0x31, 0x41, 0x9d, 0x30, 0xcb,
  0xe1, 0x05, 0x13, 0x65, 0xf9, 0x0c, 0x20, 0xff, 0xeb, 0xdd, 0xfb, 0x78,
  0xea, 0xe3, 0x0e, 0xf5, 0xea, 0x45, 0x31, 0xc8, 0x0f, 0xcb, 0xd6, 0x29,
  0x1c, 0x08, 0x20, 0x29, 0x68, 0xe5, 0xc9, 0x1b, 0x22, 0xf6, 0x40, 0x3f,
  0xe2, 0x48, 0xc9, 0x08, 0x2a, 0xbb, 0x31, 0xe1, 0xeb, 0x23, 0x52, 0xef,
  0xcb, 0xca, 0x24, 0x10, 0xd6, 0xf6, 0xe9, 0xe0, 0xa2, 0x33, 0x22, 0xe1,
  0x3f, 0x2b, 0x08, 0x4d, 0x05, 0x1a, 0xe3, 0x81, 0xc6, 0x0c, 0x1c, 0x26,
  0x2e, 0xd7, 0xe0, 0xe8, 0x17, 0x1a, 0xf6, 0xe5, 0x19, 0x46, 0x0c, 0x05,
  0xb0, 0xc4, 0xd4, 0xdb, 0xd2, 0xfa, 0x0b, 0x16, 0xc0, 0xb7, 0x10, 0xe1,
  0x08, 0x3c, 0x29, 0x16, 0x2d, 0x0b, 0xd2, 0x92, 0x33, 0x1f, 0xb2, 0xe6,
  0x20, 0x22, 0xf3, 0x27, 0x24, 0x04, 0x05, 0x0a, 0x46, 0xc9, 0x01, 0xbc,
  0xea, 0xc8, 0x04, 0xf3, 0xda, 0x10, 0xc4, 0x10, 0xaf, 0x2c, 0x32, 0x3d,
  0x0f, 0xf7, 0xf0, 0x09, 0x1a, 0x15, 0x26, 0xc9, 0xe1, 0x23, 0x02, 0xd8,
  0xca, 0xf0, 0x26, 0x0a, 0x3c, 0xfd, 0x38, 0x3f, 0xf4, 0xa1, 0xe3, 0xfa,
  0x0b, 0x22, 0x09, 0xd5, 0x06, 0xd8, 0xeb, 0x03, 0x3c, 0xea, 0x22, 0x1c,
  0x2f, 0x00, 0xe4, 0x1e, 0x49, 0x12, 0x2a, 0x11, 0x0e, 0x0e, 0x50, 0x09,
  0xf9, 0xdd, 0xcd, 0xee, 0xe0, 0x24, 0xd8, 0x5e, 0x0d, 0x38, 0xa4, 0x0e,
  0xf3, 0xff, 0xf4, 0x14, 0x0c, 0xe9, 0xde, 0x3c, 0xcb, 0x20, 0xec, 0x23,
  0x37, 0x14, 0x5c, 0x20, 0x00, 0x04, 0xdd, 0xe4, 0xea, 0x09, 0x01, 0xb7,
  0x09, 0x05, 0xb7, 0xb1, 0x11, 0x24, 0x0f, 0xdf, 0xf1, 0x0f, 0xe6, 0x32,
  0x52, 0x23, 0x02, 0x00, 0xd6, 0xf0, 0xc0, 0xbc, 0x04, 0xa7, 0xaf, 0xe9,
  0x3e, 0xf9, 0xff, 0xff, 0x04, 0x00, 0x00, 0x00, 0x00, 0x01, 0x00, 0x00,
  0xda, 0x03, 0x0f, 0x0c, 0xf6, 0xee, 0xf9, 0x0e, 0x06, 0xfb, 0xdb, 0xea,
  0x1f, 0xdc, 0xcb, 0x3b, 0xe5, 0xd5, 0x10, 0x14, 0xd2, 0xc2, 0xe7, 0x16,
  0x06, 0x0e, 0x05, 0xfb, 0xc5, 0x1e, 0xc6, 0x05, 0x29, 0x13, 0xdd, 0xc7,
  0x01, 0xc3, 0x40, 0xdc, 0xe9, 0x0c, 0xf2, 0xf4, 0xc7, 0x67, 0xd0, 0xc0,
  0xfa, 0x21, 0x81, 0x1f, 0xd6, 0x45, 0xaf, 0x0c, 0xdc, 0x46, 0xd1, 0x24,
  0x00, 0x20, 0xe5, 0x00, 0x38, 0xf1, 0xc5, 0xe7, 0x3a, 0xd0, 0xe6, 0xeb,
  0x0e, 0x1a, 0x4b, 0x0e, 0xd0, 0x04, 0xac, 0x1c, 0x40, 0x17, 0xb6, 0xe9,
  0xf0, 0xf3, 0x57, 0x1b, 0x32, 0x02, 0xfc, 0x13, 0xf2, 0x1a, 0xed, 0x1c,
  0x00, 0xed, 0x15, 0x08, 0xf8, 0x3e, 0x2f, 0xf1, 0xd6, 0xf3, 0xc4, 0x92,
  0x1a, 0xe4, 0xd2, 0x2b, 0x0d, 0x1c, 0xf6, 0xd8, 0x13, 0xff, 0x37, 0x1f,
  0x09, 0x2a, 0x27, 0xfd, 0x33, 0xf9, 0x2a, 0xff, 0x13, 0x98, 0xeb, 0xf9,
  0x16, 0x35, 0xf3, 0xd4, 0xcc, 0xd6, 0x2a, 0x14, 0xfc, 0xe1, 0xf1, 0xfc,
  0x24, 0xe8, 0xfd, 0xfc, 0xce, 0xc0, 0x04, 0x2d, 0x36, 0x29, 0xcc, 0x04,
  0xde, 0xd9, 0xdd, 0x04, 0x3b, 0xce, 0x15, 0xf5, 0xe3, 0xd3, 0xec, 0x1b,
  0x1f, 0xf4, 0xd7, 0xf4, 0xf1, 0xae, 0xd4, 0xaa, 0xe1, 0xe4, 0xd6, 0x31,
  0xd2, 0x13, 0x28, 0x01, 0x41, 0xed, 0xdb, 0xf7, 0x62, 0x10, 0xff, 0x0a,
  0x64, 0x3e, 0x47, 0x2b, 0x13, 0xf1, 0x2a, 0x26, 0xe3, 0x1e, 0x2a, 0xd2,
  0x27, 0xfd, 0x3a, 0xd6, 0x2e, 0x0c, 0xe3, 0xfd, 0x42, 0xd0, 0x1d, 0xe5,
  0xed, 0x02, 0xc5, 0xe2, 0x07, 0xd6, 0x3e, 0x19, 0xd0, 0xdf, 0xf3, 0xd7,
  0x0f, 0x05, 0xe8, 0xd3, 0x1c, 0x0d, 0x5e, 0x1b, 0x19, 0xcc, 0xe9, 0xf2,
  0x3d, 0xf3, 0x46, 0xf0, 0x3b, 0x3b, 0x14, 0xfd, 0xb5, 0x6c, 0xe1, 0x2f,
  0xdd, 0x02, 0xf4, 0x1f, 0xa8, 0xea, 0xff, 0xff, 0xac, 0xea, 0xff, 0xff,
  0x52, 0xfa, 0xff, 0xff, 0x04, 0x00, 0x00, 0x00, 0x40, 0x00, 0x00, 0x00,
  0x00, 0x00, 0x00, 0x00, 0x00, 0x00, 0x00, 0x00, 0x00, 0x00, 0x00, 0x00,
  0x00, 0x00, 0x00, 0x00, 0x00, 0x00, 0x00, 0x00, 0x00, 0x00, 0x00, 0x00,
  0x00, 0x00, 0x00, 0x00, 0x00, 0x00, 0x00, 0x00, 0x00, 0x00, 0x00, 0x00,
  0x00, 0x00, 0x00, 0x00, 0x00, 0x00, 0x00, 0x00, 0x00, 0x00, 0x00, 0x00,
  0x00, 0x00, 0x00, 0x00, 0x00, 0x00, 0x00, 0x00, 0x00, 0x00, 0x00, 0x00,
  0x00, 0x00, 0x00, 0x00, 0x9e, 0xfa, 0xff, 0xff, 0x04, 0x00, 0x00, 0x00,
  0x40, 0x00, 0x00, 0x00, 0x32, 0x6c, 0x03, 0x00, 0x32, 0x6c, 0x03, 0x00,
  0x32, 0x6c, 0x03, 0x00, 0x32, 0x6c, 0x03, 0x00, 0x32, 0x6c, 0x03, 0x00,
  0x32, 0x6c, 0x03, 0x00, 0x32, 0x6c, 0x03, 0x00, 0x32, 0x6c, 0x03, 0x00,
  0x32, 0x6c, 0x03, 0x00, 0x32, 0x6c, 0x03, 0x00, 0x32, 0x6c, 0x03, 0x00,
  0x32, 0x6c, 0x03, 0x00, 0x32, 0x6c, 0x03, 0x00, 0x32, 0x6c, 0x03, 0x00,
  0x32, 0x6c, 0x03, 0x00, 0x32, 0x6c, 0x03, 0x00, 0xea, 0xfa, 0xff, 0xff,
  0x04, 0x00, 0x00, 0x00, 0xb0, 0x00, 0x00, 0x00, 0xec, 0xca, 0xc0, 0x77,
  0x6f, 0x38, 0x84, 0x75, 0xa5, 0x09, 0xcd, 0x11, 0x10, 0x95, 0x8e, 0x9b,
  0xde, 0xc8, 0xc0, 0x82, 0x70, 0xb8, 0x77, 0x29, 0x26, 0x79, 0xa7, 0x77,
  0x29, 0x37, 0xcb, 0xfb, 0xbc, 0x2c, 0xda, 0xbb, 0x43, 0x7d, 0x74, 0x21,
  0x8e, 0x90, 0xa6, 0xd3, 0x17, 0x19, 0x99, 0x1e, 0x00, 0xfa, 0x01, 0x78,
  0xce, 0xf8, 0xbf, 0x26, 0x13, 0xd2, 0xce, 0xd0, 0x3f, 0x1f, 0x45, 0x39,
  0x7f, 0x74, 0x6b, 0x9c, 0x33, 0xd0, 0xdc, 0xb4, 0xda, 0x79, 0xf1, 0x64,
  0x3e, 0x6b, 0x78, 0xfd, 0x01, 0x5a, 0x79, 0x8a, 0x67, 0x33, 0xcf, 0x66,
  0x9f, 0xfa, 0xc5, 0xe2, 0xf2, 0x5f, 0xc4, 0x9f, 0x32, 0x13, 0x0c, 0xcc,
  0x05, 0x62, 0xdc, 0xc9, 0x58, 0x9a, 0xc6, 0x59, 0xdb, 0xe0, 0xb2, 0x62,
  0x21, 0x16, 0x4e, 0x45, 0xa5, 0x8a, 0xf2, 0x22, 0x98, 0x1d, 0x8e, 0x48,
  0x31, 0x91, 0x8c, 0x1d, 0xd1, 0x9e, 0xe1, 0x92, 0x46, 0xc6, 0x5e, 0x4e,
  0x57, 0xf1, 0x5c, 0x4a, 0xf0, 0x7d, 0xb8, 0xea, 0x8b, 0xf4, 0x3a, 0x0b,
  0x8c, 0x8d, 0xf7, 0xa7, 0xff, 0x0f, 0x0c, 0x48, 0xa1, 0xb3, 0x20, 0xf8,
  0x21, 0x3f, 0x78, 0x0b, 0x1c, 0xe1, 0x9c, 0xce, 0x7f, 0x04, 0x41, 0x5c,
  0xcb, 0x58, 0xcf, 0x0d, 0xa6, 0xfb, 0xff, 0xff, 0x04, 0x00, 0x00, 0x00,
  0x80, 0x00, 0x00, 0x00, 0x00, 0x00, 0x00, 0x00, 0x00, 0x00, 0x00, 0x00,
  0x00, 0x00, 0x00, 0x00, 0x00, 0x00, 0x00, 0x00, 0x00, 0x00, 0x00, 0x00,
  0x00, 0x00, 0x00, 0x00, 0x00, 0x00, 0x00, 0x00, 0x00, 0x00, 0x00, 0x00,
  0x00, 0x00, 0x00, 0x00, 0x00, 0x00, 0x00, 0x00, 0x00, 0x00, 0x00, 0x00,
  0x00, 0x00, 0x00, 0x00, 0x00, 0x00, 0x00, 0x00, 0x00, 0x00, 0x00, 0x00,
  0x00, 0x00, 0x00, 0x00, 0x00, 0x00, 0x00, 0x00, 0x00, 0x00, 0x00, 0x00,
  0x00, 0x00, 0x00, 0x00, 0x00, 0x00, 0x00, 0x00, 0x00, 0x00, 0x00, 0x00,
  0x00, 0x00, 0x00, 0x00, 0x00, 0x00, 0x00, 0x00, 0x00, 0x00, 0x00, 0x00,
  0x00, 0x00, 0x00, 0x00, 0x00, 0x00, 0x00, 0x00, 0x00, 0x00, 0x00, 0x00,
  0x00, 0x00, 0x00, 0x00, 0x00, 0x00, 0x00, 0x00, 0x00, 0x00, 0x00, 0x00,
  0x00, 0x00, 0x00, 0x00, 0x00, 0x00, 0x00, 0x00, 0x00, 0x00, 0x00, 0x00,
  0x32, 0xfc, 0xff, 0xff, 0x04, 0x00, 0x00, 0x00, 0x20, 0x03, 0x00, 0x00,
  0x0d, 0x45, 0x10, 0xc2, 0x71, 0x72, 0x7c, 0x2f, 0x9d, 0xbb, 0x7a, 0x25,
  0x84, 0x9c, 0xf9, 0x81, 0xe7, 0xa8, 0xd2, 0x87, 0x28, 0x30, 0xcf, 0x1a,
  0xcf, 0xbf, 0x8c, 0x46, 0x7f, 0xd5, 0x4a, 0xdd, 0x58, 0x9b, 0x09, 0x7c,
  0xf3, 0x8f, 0x86, 0x5d, 0xec, 0x7b, 0x4a, 0x4d, 0x08, 0xc7, 0xe0, 0xf9,
  0x2f, 0x2f, 0xfb, 0x46, 0x67, 0xc2, 0x84, 0x7c, 0x45, 0xca, 0xcf, 0x1f,
  0x20, 0xa3, 0xd3, 0x97, 0x3c, 0xd1, 0x95, 0x29, 0x81, 0xd1, 0x13, 0x06,
  0xa2, 0x42, 0x5d, 0x4d, 0x14, 0x81, 0x27, 0x8d, 0xd5, 0x8c, 0x09, 0xc6,
  0x91, 0x26, 0x82, 0x88, 0x4e, 0x23, 0xcd, 0xf5, 0x4d, 0xd9, 0xe7, 0xee,
  0xac, 0x78, 0x18, 0x50, 0xd7, 0x69, 0x9a, 0x1d, 0x75, 0xf2, 0x4d, 0xb0,
  0x94, 0xd1, 0xba, 0x07, 0x9b, 0x0c, 0x34, 0x38, 0x1b, 0x7f, 0x5f, 0x49,
  0xc8, 0x88, 0xdc, 0x6d, 0xb0, 0x85, 0xba, 0x69, 0xe6, 0x92, 0x2c, 0x83,
  0x58, 0xb8, 0xcd, 0xfe, 0xcc, 0x24, 0x2e, 0x78, 0x85, 0x68, 0x7f, 0x9f,
  0xed, 0x23, 0x15, 0x16, 0xbf, 0xee, 0xb5, 0x3a, 0x2f, 0x55, 0x7f, 0x45,
  0xb9, 0x29, 0x47, 0x84, 0x5c, 0x1b, 0x9d, 0xbe, 0xfe, 0x3b, 0x2d, 0x0d,
  0x2e, 0x5c, 0x97, 0x24, 0xd1, 0xc5, 0x12, 0x66, 0x77, 0x31, 0xe6, 0x41,
  0xbc, 0x40, 0x7f, 0xed, 0x41, 0xd4, 0xf6, 0x5d, 0xd0, 0xf4, 0x71, 0x8d,
  0x0f, 0x18, 0x5f, 0xda, 0xac, 0x21, 0x68, 0xc0, 0x4f, 0xb2, 0x9b, 0xe5,
  0x79, 0x15, 0x52, 0x88, 0x23, 0x2a, 0x21, 0x4d, 0x00, 0xde, 0x8c, 0x8b,
  0x7f, 0x02, 0x4a, 0x58, 0x65, 0x65, 0x3d, 0x6b, 0x57, 0x75, 0xbb, 0x72,
  0xb1, 0x4a, 0xcc, 0x4d, 0xec, 0x40, 0x61, 0x1c, 0x36, 0xe0, 0x90, 0x49,
  0xe0, 0x4d, 0x8d, 0x02, 0x29, 0x06, 0x7f, 0x2e, 0x3c, 0xf4, 0xa8, 0x2b,
  0x2b, 0xac, 0xdb, 0xb5, 0xb6, 0x07, 0xdd, 0x96, 0x20, 0xc1, 0x8f, 0x81,
  0x72, 0xf6, 0x1e, 0xe0, 0xed, 0xe3, 0x7d, 0x96, 0x97, 0x01, 0x50, 0x3b,
  0xda, 0x14, 0xfd, 0x7c, 0x3e, 0xca, 0x7f, 0x97, 0xc0, 0x57, 0xf7, 0x83,
  0xe9, 0xd1, 0x90, 0xa8, 0x79, 0xe8, 0x4e, 0x41, 0x30, 0xbd, 0x88, 0x99,
  0xf7, 0xd5, 0xce, 0x1e, 0x4d, 0xc4, 0xa3, 0x5f, 0x20, 0x96, 0x8c, 0x8c,
  0x81, 0x56, 0xba, 0x11, 0x8a, 0x38, 0x2e, 0x62, 0x26, 0x67, 0x8f, 0x2a,
  0x05, 0x04, 0x84, 0xc2, 0x1b, 0x9d, 0x59, 0x16, 0x81, 0xda, 0xe1, 0x42,
  0xd2, 0x96, 0x00, 0x51, 0x2f, 0x34, 0x2f, 0xb3, 0x14, 0xa1, 0xa8, 0xc8,
  0xea, 0x5c, 0xf4, 0xb0, 0x2b, 0x7f, 0x01, 0xc2, 0x88, 0xac, 0xed, 0xad,
  0x79, 0x55, 0x30, 0x8e, 0xae, 0x62, 0xee, 0x1b, 0x98, 0x71, 0x43, 0x5c,
  0x3e, 0xf5, 0x45, 0x78, 0x75, 0xcb, 0xe0, 0x7f, 0x6d, 0x03, 0x1f, 0x8b,
  0xb3, 0x44, 0x4c, 0xa2, 0xea, 0x6e, 0x6f, 0x28, 0x44, 0x71, 0xe8, 0x55,
  0x13, 0xa5, 0xf2, 0xd0, 0x43, 0xee, 0xb3, 0x6f, 0xbe, 0xcb, 0x9a, 0x0b,
  0xf3, 0x67, 0x9d, 0x69, 0xfb, 0x46, 0x97, 0x34, 0x3a, 0x81, 0x11, 0x31,
  0x18, 0x19, 0xd5, 0x24, 0x6a, 0xf4, 0xda, 0x3f, 0xbe, 0xc0, 0xcc, 0x3d,
  0x9e, 0x6d, 0x45, 0x97, 0xc9, 0xb5, 0x5d, 0xd2, 0x0a, 0x03, 0xd2, 0x2b,
  0xe4, 0xc2, 0x64, 0x7f, 0xb8, 0x1b, 0x23, 0x7c, 0xcd, 0xe1, 0x2a, 0x8c,
  0xc6, 0xf9, 0xa7, 0x36, 0xf0, 0xd7, 0xd7, 0xcf, 0x09, 0x1b, 0xf9, 0xab,
  0x38, 0x30, 0x81, 0xdc, 0x18, 0xa6, 0x74, 0x7a, 0xe0, 0x95, 0xbd, 0xcb,
  0xce, 0xe7, 0x05, 0xcb, 0x45, 0xa2, 0x61, 0x3e, 0xf4, 0xe9, 0x0a, 0x81,
  0xc4, 0x88, 0x73, 0x46, 0x17, 0x93, 0xad, 0x54, 0x92, 0x79, 0x0c, 0x7f,
  0xa5, 0xd1, 0x6d, 0x1d, 0xda, 0x1d, 0x79, 0xba, 0x98, 0xda, 0x57, 0x34,
  0xd8, 0x67, 0xcf, 0xe8, 0x6c, 0xfa, 0x6b, 0x15, 0x06, 0xfe, 0xd5, 0xbe,
  0x81, 0x63, 0x1a, 0x21, 0x74, 0x9b, 0xe8, 0x27, 0x0e, 0x27, 0x75, 0x6a,
  0x6b, 0x28, 0x8b, 0xc8, 0x90, 0xe2, 0x4e, 0x7f, 0x44, 0xee, 0x45, 0x7c,
  0x5c, 0x83, 0xdd, 0x76, 0x7f, 0xec, 0xce, 0xb4, 0x29, 0xec, 0xac, 0xc5,
  0x12, 0xf9, 0x0e, 0x4f, 0x7f, 0x21, 0xb2, 0xe0, 0xb0, 0xfb, 0xe1, 0x03,
  0xee, 0x55, 0x2e, 0x7e, 0x17, 0xed, 0x29, 0x7f, 0x15, 0x4f, 0x30, 0x84,
  0xcd, 0x73, 0x2a, 0x7f, 0x52, 0x55, 0x8f, 0x0a, 0x32, 0xc3, 0x62, 0xe5,
  0xcc, 0xaa, 0x68, 0x41, 0x7f, 0xbd, 0xc1, 0x17, 0x60, 0xc6, 0x43, 0xec,
  0xb9, 0x5b, 0x9c, 0x10, 0x10, 0x2c, 0xd5, 0x37, 0x1e, 0x46, 0xab, 0x49,
  0x44, 0x23, 0xc0, 0x5d, 0xde, 0x52, 0x8a, 0x77, 0x2a, 0x74, 0x0c, 0xe3,
  0xfc, 0x33, 0xe9, 0x3b, 0x1d, 0x12, 0x7f, 0x65, 0x64, 0x29, 0x45, 0x8f,
  0x71, 0x3d, 0x62, 0x03, 0xcc, 0x9f, 0x11, 0x0c, 0x6c, 0x84, 0x94, 0x13,
  0x27, 0xb7, 0x64, 0xc5, 0x7a, 0x81, 0xd9, 0x9e, 0x40, 0x45, 0x9d, 0x04,
  0x6d, 0xf4, 0x6c, 0x39, 0x01, 0x59, 0x4b, 0x97, 0xa0, 0x64, 0x22, 0x0e,
  0xfa, 0x86, 0xa6, 0x7a, 0x20, 0x03, 0x55, 0x62, 0x3a, 0xf5, 0xb9, 0xc5,
  0x31, 0x8d, 0x81, 0x32, 0xed, 0x02, 0x98, 0x98, 0xee, 0x6d, 0x99, 0x5b,
  0x28, 0x51, 0x53, 0x7f, 0x1d, 0xe1, 0x1b, 0x8e, 0xcf, 0x91, 0x98, 0x20,
  0xc7, 0x41, 0xbc, 0x20, 0xad, 0xa0, 0x40, 0xe6, 0x48, 0x56, 0x19, 0x6b,
  0x05, 0x96, 0x4f, 0xed, 0xe8, 0x45, 0x84, 0x1f, 0xd2, 0x93, 0x4d, 0x7f,
  0x4c, 0xb3, 0xf3, 0x73, 0x6e, 0x62, 0x81, 0x08, 0x3b, 0x89, 0x0e, 0x95,
  0xfe, 0x78, 0x64, 0xf2, 0x62, 0xe8, 0xa8, 0xa1, 0x0e, 0x3a, 0x5f, 0xfd,
  0xb1, 0x55, 0x12, 0x2f, 0xab, 0xe2, 0x18, 0x30, 0x4a, 0x99, 0x7c, 0xcf,
  0x6d, 0xc3, 0x9c, 0x7f, 0x34, 0xb8, 0xa5, 0x6b, 0x81, 0xf0, 0xda, 0xc4,
  0xc8, 0xe0, 0xf7, 0xbb, 0x4e, 0x54, 0x27, 0x88, 0x5e, 0xff, 0xff, 0xff,
  0x04, 0x00, 0x00, 0x00, 0x0c, 0x00, 0x00, 0x00, 0x01, 0x00, 0x00, 0x00,
  0x46, 0x00, 0x00, 0x00, 0x20, 0x00, 0x00, 0x00, 0xd4, 0xef, 0xff, 0xff,
  0xd8, 0xef, 0xff, 0xff, 0x0f, 0x00, 0x00, 0x00, 0x4d, 0x4c, 0x49, 0x52,
  0x20, 0x43, 0x6f, 0x6e, 0x76, 0x65, 0x72, 0x74, 0x65, 0x64, 0x2e, 0x00,
  0x01, 0x00, 0x00, 0x00, 0x14, 0x00, 0x00, 0x00, 0x00, 0x00, 0x0e, 0x00,
  0x18, 0x00, 0x14, 0x00, 0x10, 0x00, 0x0c, 0x00, 0x08, 0x00, 0x04, 0x00,
  0x0e, 0x00, 0x00, 0x00, 0x14, 0x00, 0x00, 0x00, 0x1c, 0x00, 0x00, 0x00,
  0x10, 0x02, 0x00, 0x00, 0x14, 0x02, 0x00, 0x00, 0x18, 0x02, 0x00, 0x00,
  0x04, 0x00, 0x00, 0x00, 0x6d, 0x61, 0x69, 0x6e, 0x00, 0x00, 0x00, 0x00,
  0x05, 0x00, 0x00, 0x00, 0xac, 0x01, 0x00, 0x00, 0x74, 0x01, 0x00, 0x00,
  0xb0, 0x00, 0x00, 0x00, 0x50, 0x00, 0x00, 0x00, 0x04, 0x00, 0x00, 0x00,
  0xc6, 0xff, 0xff, 0xff, 0x1c, 0x00, 0x00, 0x00, 0x00, 0x00, 0x00, 0x09,
  0x1c, 0x00, 0x00, 0x00, 0x20, 0x00, 0x00, 0x00, 0x04, 0x00, 0x00, 0x00,
  0x00, 0x00, 0x06, 0x00, 0x08, 0x00, 0x04, 0x00, 0x06, 0x00, 0x00, 0x00,
  0x00, 0x00, 0x80, 0x3f, 0x01, 0x00, 0x00, 0x00, 0x1c, 0x00, 0x00, 0x00,
  0x01, 0x00, 0x00, 0x00, 0x1b, 0x00, 0x00, 0x00, 0x00, 0x00, 0x0e, 0x00,
  0x1a, 0x00, 0x14, 0x00, 0x10, 0x00, 0x0c, 0x00, 0x0b, 0x00, 0x04, 0x00,
  0x0e, 0x00, 0x00, 0x00, 0x20, 0x00, 0x00, 0x00, 0x00, 0x00, 0x00, 0x08,
  0x20, 0x00, 0x00, 0x00, 0x24, 0x00, 0x00, 0x00, 0x03, 0x00, 0x00, 0x00,
  0x00, 0x00, 0x0a, 0x00, 0x08, 0x00, 0x00, 0x00, 0x00, 0x00, 0x07, 0x00,
  0x0a, 0x00, 0x00, 0x00, 0x00, 0x00, 0x00, 0x01, 0x01, 0x00, 0x00, 0x00,
  0x1b, 0x00, 0x00, 0x00, 0x03, 0x00, 0x00, 0x00, 0x1a, 0x00, 0x00, 0x00,
  0x04, 0x00, 0x00, 0x00, 0xff, 0xff, 0xff, 0xff, 0x00, 0x00, 0x16, 0x00,
  0x1c, 0x00, 0x18, 0x00, 0x14, 0x00, 0x10, 0x00, 0x0f, 0x00, 0x08, 0x00,
  0x00, 0x00, 0x00, 0x00, 0x00, 0x00, 0x04, 0x00, 0x16, 0x00, 0x00, 0x00,
  0x18, 0x00, 0x00, 0x00, 0x34, 0x00, 0x00, 0x00, 0x00, 0x00, 0x00, 0x47,
  0x38, 0x00, 0x00, 0x00, 0x3c, 0x00, 0x00, 0x00, 0x02, 0x00, 0x00, 0x00,
  0x05, 0x00, 0x00, 0x00, 0x15, 0x00, 0x00, 0x00, 0x16, 0x00, 0x00, 0x00,
  0x17, 0x00, 0x00, 0x00, 0x18, 0x00, 0x00, 0x00, 0x19, 0x00, 0x00, 0x00,
  0x08, 0x00, 0x0c, 0x00, 0x0b, 0x00, 0x04, 0x00, 0x08, 0x00, 0x00, 0x00,
  0x00, 0x00, 0x20, 0x41, 0x00, 0x00, 0x00, 0x04, 0x01, 0x00, 0x00, 0x00,
  0x1a, 0x00, 0x00, 0x00, 0x18, 0x00, 0x00, 0x00, 0x12, 0x00, 0x00, 0x00,
  0x10, 0x00, 0x00, 0x00, 0x0f, 0x00, 0x00, 0x00, 0x0e, 0x00, 0x00, 0x00,
  0x0d, 0x00, 0x00, 0x00, 0x0c, 0x00, 0x00, 0x00, 0x0b, 0x00, 0x00, 0x00,
  0x0a, 0x00, 0x00, 0x00, 0x09, 0x00, 0x00, 0x00, 0xff, 0xff, 0xff, 0xff,
  0xff, 0xff, 0xff, 0xff, 0xff, 0xff, 0xff, 0xff, 0x06, 0x00, 0x00, 0x00,
  0x05, 0x00, 0x00, 0x00, 0x07, 0x00, 0x00, 0x00, 0x08, 0x00, 0x00, 0x00,
  0xff, 0xff, 0xff, 0xff, 0xff, 0xff, 0xff, 0xff, 0x13, 0x00, 0x00, 0x00,
  0x14, 0x00, 0x00, 0x00, 0xff, 0xff, 0xff, 0xff, 0xff, 0xff, 0xff, 0xff,
  0xff, 0xff, 0xff, 0xff, 0xff, 0xff, 0xff, 0xff, 0x00, 0x00, 0x0a, 0x00,
  0x10, 0x00, 0x0c, 0x00, 0x08, 0x00, 0x04, 0x00, 0x0a, 0x00, 0x00, 0x00,
  0x0c, 0x00, 0x00, 0x00, 0x10, 0x00, 0x00, 0x00, 0x01, 0x00, 0x00, 0x00,
  0x01, 0x00, 0x00, 0x00, 0x12, 0x00, 0x00, 0x00, 0x02, 0x00, 0x00, 0x00,
  0x11, 0x00, 0x00, 0x00, 0x01, 0x00, 0x00, 0x00, 0x00, 0x00, 0x0e, 0x00,
  0x14, 0x00, 0x00, 0x00, 0x10, 0x00, 0x0c, 0x00, 0x0b, 0x00, 0x04, 0x00,
  0x0e, 0x00, 0x00, 0x00, 0x1c, 0x00, 0x00, 0x00, 0x00, 0x00, 0x00, 0x01,
  0x24, 0x00, 0x00, 0x00, 0x28, 0x00, 0x00, 0x00, 0x0c, 0x00, 0x10, 0x00,
  0x00, 0x00, 0x0c, 0x00, 0x08, 0x00, 0x07, 0x00, 0x0c, 0x00, 0x00, 0x00,
  0x00, 0x00, 0x00, 0x01, 0x07, 0x00, 0x00, 0x00, 0x07, 0x00, 0x00, 0x00,
  0x01, 0x00, 0x00, 0x00, 0x11, 0x00, 0x00, 0x00, 0x03, 0x00, 0x00, 0x00,
  0x00, 0x00, 0x00, 0x00, 0x02, 0x00, 0x00, 0x00, 0x03, 0x00, 0x00, 0x00,
  0x01, 0x00, 0x00, 0x00, 0x1c, 0x00, 0x00, 0x00, 0x01, 0x00, 0x00, 0x00,
  0x00, 0x00, 0x00, 0x00, 0x1d, 0x00, 0x00, 0x00, 0x10, 0x0e, 0x00, 0x00,
  0xa8, 0x0d, 0x00, 0x00, 0xb4, 0x0b, 0x00, 0x00, 0xd0, 0x09, 0x00, 0x00,
  0x5c, 0x09, 0x00, 0x00, 0x00, 0x09, 0x00, 0x00, 0xa4, 0x08, 0x00, 0x00,
  0x40, 0x08, 0x00, 0x00, 0xdc, 0x07, 0x00, 0x00, 0x78, 0x07, 0x00, 0x00,
  0x14, 0x07, 0x00, 0x00, 0xb0, 0x06, 0x00, 0x00, 0x4c, 0x06, 0x00, 0x00,
  0xe8, 0x05, 0x00, 0x00, 0x84, 0x05, 0x00, 0x00, 0x20, 0x05, 0x00, 0x00,
  0xbc, 0x04, 0x00, 0x00, 0x38, 0x04, 0x00, 0x00, 0xcc, 0x03, 0x00, 0x00,
  0x6c, 0x03, 0x00, 0x00, 0xf0, 0x02, 0x00, 0x00, 0xb4, 0x02, 0x00, 0x00,
  0x5c, 0x02, 0x00, 0x00, 0x20, 0x02, 0x00, 0x00, 0xe0, 0x01, 0x00, 0x00,
  0x74, 0x01, 0x00, 0x00, 0xe4, 0x00, 0x00, 0x00, 0x78, 0x00, 0x00, 0x00,
  0x04, 0x00, 0x00, 0x00, 0x7a, 0xf2, 0xff, 0xff, 0x00, 0x00, 0x00, 0x01,
  0x14, 0x00, 0x00, 0x00, 0x34, 0x00, 0x00, 0x00, 0x18, 0x00, 0x00, 0x00,
  0x00, 0x00, 0x00, 0x09, 0x48, 0x00, 0x00, 0x00, 0x64, 0xf2, 0xff, 0xff,
  0x08, 0x00, 0x00, 0x00, 0x14, 0x00, 0x00, 0x00, 0x01, 0x00, 0x00, 0x00,
  0x80, 0xff, 0xff, 0xff, 0xff, 0xff, 0xff, 0xff, 0x00, 0x00, 0x00, 0x00,
  0x01, 0x00, 0x00, 0x00, 0x00, 0x00, 0x80, 0x3b, 0x19, 0x00, 0x00, 0x00,
  0x53, 0x74, 0x61, 0x74, 0x65, 0x66, 0x75, 0x6c, 0x50, 0x61, 0x72, 0x74,
  0x69, 0x74, 0x69, 0x6f, 0x6e, 0x65, 0x64, 0x43, 0x61, 0x6c, 0x6c, 0x3a,
  0x30, 0x00, 0x00, 0x00, 0x03, 0x00, 0x00, 0x00, 0x01, 0x00, 0x00, 0x00,
  0x46, 0x00, 0x00, 0x00, 0x0b, 0x00, 0x00, 0x00, 0xea, 0xf2, 0xff, 0xff,
  0x00, 0x00, 0x00, 0x01, 0x14, 0x00, 0x00, 0x00, 0x30, 0x00, 0x00, 0x00,
  0x17, 0x00, 0x00, 0x00, 0x00, 0x00, 0x00, 0x09, 0x40, 0x00, 0x00, 0x00,
  0xd4, 0xf2, 0xff, 0xff, 0x08, 0x00, 0x00, 0x00, 0x10, 0x00, 0x00, 0x00,
  0x01, 0x00, 0x00, 0x00, 0xca, 0xff, 0xff, 0xff, 0xff, 0xff, 0xff, 0xff,
  0x01, 0x00, 0x00, 0x00, 0x8b, 0xa7, 0xa2, 0x3a, 0x15, 0x00, 0x00, 0x00,
  0x6d, 0x6f, 0x64, 0x65, 0x6c, 0x2f, 0x64, 0x65, 0x6e, 0x73, 0x65, 0x2f,
  0x54, 0x65, 0x6e, 0x73, 0x6f, 0x72, 0x64, 0x6f, 0x74, 0x00, 0x00, 0x00,
  0x03, 0x00, 0x00, 0x00, 0x01, 0x00, 0x00, 0x00, 0x46, 0x00, 0x00, 0x00,
  0x0b, 0x00, 0x00, 0x00, 0x52, 0xf3, 0xff, 0xff, 0x00, 0x00, 0x00, 0x01,
  0x14, 0x00, 0x00, 0x00, 0x30, 0x00, 0x00, 0x00, 0x16, 0x00, 0x00, 0x00,
  0x00, 0x00, 0x00, 0x09, 0x4c, 0x00, 0x00, 0x00, 0x3c, 0xf3, 0xff, 0xff,
  0x08, 0x00, 0x00, 0x00, 0x10, 0x00, 0x00, 0x00, 0x01, 0x00, 0x00, 0x00,
  0xd9, 0xff, 0xff, 0xff, 0xff, 0xff, 0xff, 0xff, 0x01, 0x00, 0x00, 0x00,
  0xb6, 0x2e, 0xb3, 0x3a, 0x20, 0x00, 0x00, 0x00, 0x74, 0x66, 0x6c, 0x2e,
  0x75, 0x6e, 0x69, 0x64, 0x69, 0x72, 0x65, 0x63, 0x74, 0x69, 0x6f, 0x6e,
  0x61, 0x6c, 0x5f, 0x73, 0x65, 0x71, 0x75, 0x65, 0x6e, 0x63, 0x65, 0x5f,
  0x6c, 0x73, 0x74, 0x6d, 0x00, 0x00, 0x00, 0x00, 0x03, 0x00, 0x00, 0x00,
  0x01, 0x00, 0x00, 0x00, 0x46, 0x00, 0x00, 0x00, 0x10, 0x00, 0x00, 0x00,
  0x00, 0x00, 0x16, 0x00, 0x18, 0x00, 0x14, 0x00, 0x13, 0x00, 0x00, 0x00,
  0x0c, 0x00, 0x08, 0x00, 0x00, 0x00, 0x00, 0x00, 0x00, 0x00, 0x07, 0x00,
  0x16, 0x00, 0x00, 0x00, 0x00, 0x00, 0x00, 0x01, 0x10, 0x00, 0x00, 0x00,
  0x2c, 0x00, 0x00, 0x00, 0x00, 0x00, 0x00, 0x09, 0x4c, 0x00, 0x00, 0x00,
  0xc4, 0xf3, 0xff, 0xff, 0x08, 0x00, 0x00, 0x00, 0x10, 0x00, 0x00, 0x00,
  0x01, 0x00, 0x00, 0x00, 0xd9, 0xff, 0xff, 0xff, 0xff, 0xff, 0xff, 0xff,
  0x01, 0x00, 0x00, 0x00, 0xb6, 0x2e, 0xb3, 0x3a, 0x23, 0x00, 0x00, 0x00,
  0x65, 0x66, 0x66, 0x65, 0x63, 0x74, 0x69, 0x76, 0x65, 0x5f, 0x68, 0x69,
  0x64, 0x64, 0x65, 0x6e, 0x5f, 0x73, 0x63, 0x61, 0x6c, 0x65, 0x5f, 0x69,
  0x6e, 0x74, 0x65, 0x72, 0x6d, 0x65, 0x64, 0x69, 0x61, 0x74, 0x65, 0x00,
  0x01, 0x00, 0x00, 0x00, 0x00, 0x00, 0x00, 0x00, 0x4e, 0xff, 0xff, 0xff,
  0x00, 0x00, 0x00, 0x01, 0x08, 0x00, 0x00, 0x00, 0x28, 0x00, 0x00, 0x00,
  0x1c, 0x00, 0x00, 0x00, 0x69, 0x6e, 0x70, 0x75, 0x74, 0x5f, 0x74, 0x6f,
  0x5f, 0x6f, 0x75, 0x74, 0x70, 0x75, 0x74, 0x5f, 0x69, 0x6e, 0x74, 0x65,
  0x72, 0x6d, 0x65, 0x64, 0x69, 0x61, 0x74, 0x65, 0x00, 0x00, 0x00, 0x00,
  0x01, 0x00, 0x00, 0x00, 0x00, 0x00, 0x00, 0x00, 0x8a, 0xff, 0xff, 0xff,
  0x00, 0x00, 0x00, 0x01, 0x08, 0x00, 0x00, 0x00, 0x24, 0x00, 0x00, 0x00,
  0x1a, 0x00, 0x00, 0x00, 0x69, 0x6e, 0x70, 0x75, 0x74, 0x5f, 0x74, 0x6f,
  0x5f, 0x63, 0x65, 0x6c, 0x6c, 0x5f, 0x69, 0x6e, 0x74, 0x65, 0x72, 0x6d,
  0x65, 0x64, 0x69, 0x61, 0x74, 0x65, 0x00, 0x00, 0x01, 0x00, 0x00, 0x00,
  0x00, 0x00, 0x00, 0x00, 0xc2, 0xff, 0xff, 0xff, 0x00, 0x00, 0x00, 0x01,
  0x08, 0x00, 0x00, 0x00, 0x28, 0x00, 0x00, 0x00, 0x1c, 0x00, 0x00, 0x00,
  0x69, 0x6e, 0x70, 0x75, 0x74, 0x5f, 0x74, 0x6f, 0x5f, 0x66, 0x6f, 0x72,
  0x67, 0x65, 0x74, 0x5f, 0x69, 0x6e, 0x74, 0x65, 0x72, 0x6d, 0x65, 0x64,
  0x69, 0x61, 0x74, 0x65, 0x00, 0x00, 0x00, 0x00, 0x01, 0x00, 0x00, 0x00,
  0x00, 0x00, 0x00, 0x00, 0x00, 0x00, 0x16, 0x00, 0x10, 0x00, 0x0c, 0x00,
  0x00, 0x00, 0x00, 0x00, 0x08, 0x00, 0x00, 0x00, 0x00, 0x00, 0x00, 0x00,
  0x00, 0x00, 0x07, 0x00, 0x16, 0x00, 0x00, 0x00, 0x00, 0x00, 0x00, 0x01,
  0x08, 0x00, 0x00, 0x00, 0x24, 0x00, 0x00, 0x00, 0x1b, 0x00, 0x00, 0x00,
  0x69, 0x6e, 0x70, 0x75, 0x74, 0x5f, 0x74, 0x6f, 0x5f, 0x69, 0x6e, 0x70,
  0x75, 0x74, 0x5f, 0x69, 0x6e, 0x74, 0x65, 0x72, 0x6d, 0x65, 0x64, 0x69,
  0x61, 0x74, 0x65, 0x00, 0x01, 0x00, 0x00, 0x00, 0x00, 0x00, 0x00, 0x00,
  0x9e, 0xff, 0xff, 0xff, 0x00, 0x00, 0x01, 0x01, 0x10, 0x00, 0x00, 0x00,
  0x30, 0x00, 0x00, 0x00, 0x00, 0x00, 0x00, 0x07, 0x40, 0x00, 0x00, 0x00,
  0x2c, 0xf5, 0xff, 0xff, 0x08, 0x00, 0x00, 0x00, 0x14, 0x00, 0x00, 0x00,
  0x01, 0x00, 0x00, 0x00, 0x00, 0x00, 0x00, 0x00, 0x00, 0x00, 0x00, 0x00,
  0x00, 0x00, 0x00, 0x00, 0x01, 0x00, 0x00, 0x00, 0x00, 0x00, 0x80, 0x37,
  0x12, 0x00, 0x00, 0x00, 0x74, 0x66, 0x6c, 0x2e, 0x70, 0x73, 0x65, 0x75,
  0x64, 0x6f, 0x5f, 0x71, 0x63, 0x6f, 0x6e, 0x73, 0x74, 0x31, 0x00, 0x00,
  0x02, 0x00, 0x00, 0x00, 0x01, 0x00, 0x00, 0x00, 0x10, 0x00, 0x00, 0x00,
  0x00, 0x00, 0x16, 0x00, 0x18, 0x00, 0x14, 0x00, 0x13, 0x00, 0x00, 0x00,
  0x0c, 0x00, 0x08, 0x00, 0x07, 0x00, 0x00, 0x00, 0x00, 0x00, 0x06, 0x00,
  0x16, 0x00, 0x00, 0x00, 0x00, 0x00, 0x01, 0x01, 0x10, 0x00, 0x00, 0x00,
  0x2c, 0x00, 0x00, 0x00, 0x00, 0x00, 0x00, 0x09, 0x3c, 0x00, 0x00, 0x00,
  0xa4, 0xf5, 0xff, 0xff, 0x08, 0x00, 0x00, 0x00, 0x10, 0x00, 0x00, 0x00,
  0x01, 0x00, 0x00, 0x00, 0xd9, 0xff, 0xff, 0xff, 0xff, 0xff, 0xff, 0xff,
  0x01, 0x00, 0x00, 0x00, 0xb6, 0x2e, 0xb3, 0x3a, 0x11, 0x00, 0x00, 0x00,
  0x74, 0x66, 0x6c, 0x2e, 0x70, 0x73, 0x65, 0x75, 0x64, 0x6f, 0x5f, 0x71,
  0x63, 0x6f, 0x6e, 0x73, 0x74, 0x00, 0x00, 0x00, 0x02, 0x00, 0x00, 0x00,
  0x01, 0x00, 0x00, 0x00, 0x10, 0x00, 0x00, 0x00, 0x1a, 0xf6, 0xff, 0xff,
  0x00, 0x00, 0x00, 0x01, 0x14, 0x00, 0x00, 0x00, 0x30, 0x00, 0x00, 0x00,
  0x13, 0x00, 0x00, 0x00, 0x00, 0x00, 0x00, 0x09, 0x40, 0x00, 0x00, 0x00,
  0x04, 0xf6, 0xff, 0xff, 0x08, 0x00, 0x00, 0x00, 0x10, 0x00, 0x00, 0x00,
  0x01, 0x00, 0x00, 0x00, 0x80, 0xff, 0xff, 0xff, 0xff, 0xff, 0xff, 0xff,
  0x01, 0x00, 0x00, 0x00, 0x95, 0xb4, 0x14, 0x3b, 0x15, 0x00, 0x00, 0x00,
  0x6d, 0x6f, 0x64, 0x65, 0x6c, 0x2f, 0x72, 0x65, 0x73, 0x68, 0x61, 0x70,
  0x65, 0x2f, 0x52, 0x65, 0x73, 0x68, 0x61, 0x70, 0x65, 0x00, 0x00, 0x00,
  0x03, 0x00, 0x00, 0x00, 0x01, 0x00, 0x00, 0x00, 0x46, 0x00, 0x00, 0x00,
  0x20, 0x00, 0x00, 0x00, 0x82, 0xf6, 0xff, 0xff, 0x00, 0x00, 0x00, 0x01,
  0x14, 0x00, 0x00, 0x00, 0x34, 0x00, 0x00, 0x00, 0x12, 0x00, 0x00, 0x00,
  0x00, 0x00, 0x00, 0x09, 0x54, 0x00, 0x00, 0x00, 0x6c, 0xf6, 0xff, 0xff,
  0x08, 0x00, 0x00, 0x00, 0x14, 0x00, 0x00, 0x00, 0x01, 0x00, 0x00, 0x00,
  0x80, 0xff, 0xff, 0xff, 0xff, 0xff, 0xff, 0xff, 0x00, 0x00, 0x00, 0x00,
  0x01, 0x00, 0x00, 0x00, 0x95, 0xb4, 0x14, 0x3b, 0x26, 0x00, 0x00, 0x00,
  0x6d, 0x6f, 0x64, 0x65, 0x6c, 0x2f, 0x63, 0x6f, 0x6e, 0x76, 0x32, 0x64,
  0x2f, 0x52, 0x65, 0x6c, 0x75, 0x3b, 0x6d, 0x6f, 0x64, 0x65, 0x6c, 0x2f,
  0x63, 0x6f, 0x6e, 0x76, 0x32, 0x64, 0x2f, 0x43, 0x6f, 0x6e, 0x76, 0x32,
  0x44, 0x31, 0x00, 0x00, 0x04, 0x00, 0x00, 0x00, 0x01, 0x00, 0x00, 0x00,
  0x05, 0x00, 0x00, 0x00, 0x0e, 0x00, 0x00, 0x00, 0x20, 0x00, 0x00, 0x00,
  0x02, 0xf7, 0xff, 0xff, 0x00, 0x00, 0x00, 0x01, 0x14, 0x00, 0x00, 0x00,
  0x34, 0x00, 0x00, 0x00, 0x11, 0x00, 0x00, 0x00, 0x00, 0x00, 0x00, 0x09,
  0x3c, 0x00, 0x00, 0x00, 0xec, 0xf6, 0xff, 0xff, 0x08, 0x00, 0x00, 0x00,
  0x14, 0x00, 0x00, 0x00, 0x01, 0x00, 0x00, 0x00, 0x00, 0x00, 0x00, 0x00,
  0x00, 0x00, 0x00, 0x00, 0x00, 0x00, 0x00, 0x00, 0x01, 0x00, 0x00, 0x00,
  0x30, 0xc6, 0x00, 0x3b, 0x0f, 0x00, 0x00, 0x00, 0x61, 0x72, 0x69, 0x74,
  0x68, 0x2e, 0x63, 0x6f, 0x6e, 0x73, 0x74, 0x61, 0x6e, 0x74, 0x36, 0x00,
  0x02, 0x00, 0x00, 0x00, 0x10, 0x00, 0x00, 0x00, 0x20, 0x00, 0x00, 0x00,
  0x62, 0xf7, 0xff, 0xff, 0x00, 0x00, 0x00, 0x01, 0x14, 0x00, 0x00, 0x00,
  0x34, 0x00, 0x00, 0x00, 0x10, 0x00, 0x00, 0x00, 0x00, 0x00, 0x00, 0x09,
  0x3c, 0x00, 0x00, 0x00, 0x4c, 0xf7, 0xff, 0xff, 0x08, 0x00, 0x00, 0x00,
  0x14, 0x00, 0x00, 0x00, 0x01, 0x00, 0x00, 0x00, 0x00, 0x00, 0x00, 0x00,
  0x00, 0x00, 0x00, 0x00, 0x00, 0x00, 0x00, 0x00, 0x01, 0x00, 0x00, 0x00,
  0x6d, 0xc3, 0x00, 0x3b, 0x0f, 0x00, 0x00, 0x00, 0x61, 0x72, 0x69, 0x74,
  0x68, 0x2e, 0x63, 0x6f, 0x6e, 0x73, 0x74, 0x61, 0x6e, 0x74, 0x37, 0x00,
  0x02, 0x00, 0x00, 0x00, 0x10, 0x00, 0x00, 0x00, 0x20, 0x00, 0x00, 0x00,
  0xc2, 0xf7, 0xff, 0xff, 0x00, 0x00, 0x00, 0x01, 0x14, 0x00, 0x00, 0x00,
  0x34, 0x00, 0x00, 0x00, 0x0f, 0x00, 0x00, 0x00, 0x00, 0x00, 0x00, 0x09,
  0x3c, 0x00, 0x00, 0x00, 0xac, 0xf7, 0xff, 0xff, 0x08, 0x00, 0x00, 0x00,
  0x14, 0x00, 0x00, 0x00, 0x01, 0x00, 0x00, 0x00, 0x00, 0x00, 0x00, 0x00,
  0x00, 0x00, 0x00, 0x00, 0x00, 0x00, 0x00, 0x00, 0x01, 0x00, 0x00, 0x00,
  0x3a, 0xd3, 0x00, 0x3b, 0x0f, 0x00, 0x00, 0x00, 0x61, 0x72, 0x69, 0x74,
  0x68, 0x2e, 0x63, 0x6f, 0x6e, 0x73, 0x74, 0x61, 0x6e, 0x74, 0x38, 0x00,
  0x02, 0x00, 0x00, 0x00, 0x10, 0x00, 0x00, 0x00, 0x20, 0x00, 0x00, 0x00,
  0x22, 0xf8, 0xff, 0xff, 0x00, 0x00, 0x00, 0x01, 0x14, 0x00, 0x00, 0x00,
  0x34, 0x00, 0x00, 0x00, 0x0e, 0x00, 0x00, 0x00, 0x00, 0x00, 0x00, 0x09,
  0x3c, 0x00, 0x00, 0x00, 0x0c, 0xf8, 0xff, 0xff, 0x08, 0x00, 0x00, 0x00,
  0x14, 0x00, 0x00, 0x00, 0x01, 0x00, 0x00, 0x00, 0x00, 0x00, 0x00, 0x00,
  0x00, 0x00, 0x00, 0x00, 0x00, 0x00, 0x00, 0x00, 0x01, 0x00, 0x00, 0x00,
  0xab, 0xfc, 0x00, 0x3b, 0x0f, 0x00, 0x00, 0x00, 0x61, 0x72, 0x69, 0x74,
  0x68, 0x2e, 0x63, 0x6f, 0x6e, 0x73, 0x74, 0x61, 0x6e, 0x74, 0x39, 0x00,
  0x02, 0x00, 0x00, 0x00, 0x10, 0x00, 0x00, 0x00, 0x20, 0x00, 0x00, 0x00,
  0x82, 0xf8, 0xff, 0xff, 0x00, 0x00, 0x00, 0x01, 0x14, 0x00, 0x00, 0x00,
  0x34, 0x00, 0x00, 0x00, 0x0d, 0x00, 0x00, 0x00, 0x00, 0x00, 0x00, 0x09,
  0x3c, 0x00, 0x00, 0x00, 0x6c, 0xf8, 0xff, 0xff, 0x08, 0x00, 0x00, 0x00,
  0x14, 0x00, 0x00, 0x00, 0x01, 0x00, 0x00, 0x00, 0x00, 0x00, 0x00, 0x00,
  0x00, 0x00, 0x00, 0x00, 0x00, 0x00, 0x00, 0x00, 0x01, 0x00, 0x00, 0x00,
  0x75, 0x66, 0x47, 0x3b, 0x0e, 0x00, 0x00, 0x00, 0x61, 0x72, 0x69, 0x74,
  0x68, 0x2e, 0x63, 0x6f, 0x6e, 0x73, 0x74, 0x61, 0x6e, 0x74, 0x00, 0x00,
  0x02, 0x00, 0x00, 0x00, 0x10, 0x00, 0x00, 0x00, 0x10, 0x00, 0x00, 0x00,
  0xe2, 0xf8, 0xff, 0xff, 0x00, 0x00, 0x00, 0x01, 0x14, 0x00, 0x00, 0x00,
  0x34, 0x00, 0x00, 0x00, 0x0c, 0x00, 0x00, 0x00, 0x00, 0x00, 0x00, 0x09,
  0x3c, 0x00, 0x00, 0x00, 0xcc, 0xf8, 0xff, 0xff, 0x08, 0x00, 0x00, 0x00,
  0x14, 0x00, 0x00, 0x00, 0x01, 0x00, 0x00, 0x00, 0x00, 0x00, 0x00, 0x00,
  0x00, 0x00, 0x00, 0x00, 0x00, 0x00, 0x00, 0x00, 0x01, 0x00, 0x00, 0x00,
  0x9b, 0x20, 0x25, 0x3b, 0x0f, 0x00, 0x00, 0x00, 0x61, 0x72, 0x69, 0x74,
  0x68, 0x2e, 0x63, 0x6f, 0x6e, 0x73, 0x74, 0x61, 0x6e, 0x74, 0x31, 0x00,
  0x02, 0x00, 0x00, 0x00, 0x10, 0x00, 0x00, 0x00, 0x10, 0x00, 0x00, 0x00,
  0x42, 0xf9, 0xff, 0xff, 0x00, 0x00, 0x00, 0x01, 0x14, 0x00, 0x00, 0x00,
  0x34, 0x00, 0x00, 0x00, 0x0b, 0x00, 0x00, 0x00, 0x00, 0x00, 0x00, 0x09,
  0x3c, 0x00, 0x00, 0x00, 0x2c, 0xf9, 0xff, 0xff, 0x08, 0x00, 0x00, 0x00,
  0x14, 0x00, 0x00, 0x00, 0x01, 0x00, 0x00, 0x00, 0x00, 0x00, 0x00, 0x00,
  0x00, 0x00, 0x00, 0x00, 0x00, 0x00, 0x00, 0x00, 0x01, 0x00, 0x00, 0x00,
  0xe2, 0x13, 0x3f, 0x3b, 0x0f, 0x00, 0x00, 0x00, 0x61, 0x72, 0x69, 0x74,
  0x68, 0x2e, 0x63, 0x6f, 0x6e, 0x73, 0x74, 0x61, 0x6e, 0x74, 0x32, 0x00,
  0x02, 0x00, 0x00, 0x00, 0x10, 0x00, 0x00, 0x00, 0x10, 0x00, 0x00, 0x00,
  0xa2, 0xf9, 0xff, 0xff, 0x00, 0x00, 0x00, 0x01, 0x14, 0x00, 0x00, 0x00,
  0x34, 0x00, 0x00, 0x00, 0x0a, 0x00, 0x00, 0x00, 0x00, 0x00, 0x00, 0x09,
  0x3c, 0x00, 0x00, 0x00, 0x8c, 0xf9, 0xff, 0xff, 0x08, 0x00, 0x00, 0x00,
  0x14, 0x00, 0x00, 0x00, 0x01, 0x00, 0x00, 0x00, 0x00, 0x00, 0x00, 0x00,
  0x00, 0x00, 0x00, 0x00, 0x00, 0x00, 0x00, 0x00, 0x01, 0x00, 0x00, 0x00,
  0xd9, 0xd6, 0x40, 0x3b, 0x0f, 0x00, 0x00, 0x00, 0x61, 0x72, 0x69, 0x74,
  0x68, 0x2e, 0x63, 0x6f, 0x6e, 0x73, 0x74, 0x61, 0x6e, 0x74, 0x33, 0x00,
  0x02, 0x00, 0x00, 0x00, 0x10, 0x00, 0x00, 0x00, 0x10, 0x00, 0x00, 0x00,
  0x02, 0xfa, 0xff, 0xff, 0x00, 0x00, 0x00, 0x01, 0x14, 0x00, 0x00, 0x00,
  0x34, 0x00, 0x00, 0x00, 0x07, 0x00, 0x00, 0x00, 0x00, 0x00, 0x00, 0x02,
  0x40, 0x00, 0x00, 0x00, 0xec, 0xf9, 0xff, 0xff, 0x08, 0x00, 0x00, 0x00,
  0x14, 0x00, 0x00, 0x00, 0x01, 0x00, 0x00, 0x00, 0x00, 0x00, 0x00, 0x00,
  0x00, 0x00, 0x00, 0x00, 0x00, 0x00, 0x00, 0x00, 0x01, 0x00, 0x00, 0x00,
  0x1f, 0xda, 0x95, 0x36, 0x10, 0x00, 0x00, 0x00, 0x61, 0x72, 0x69, 0x74,
  0x68, 0x2e, 0x63, 0x6f, 0x6e, 0x73, 0x74, 0x61, 0x6e, 0x74, 0x34, 0x32,
  0x00, 0x00, 0x00, 0x00, 0x01, 0x00, 0x00, 0x00, 0x10, 0x00, 0x00, 0x00,
  0x62, 0xfa, 0xff, 0xff, 0x00, 0x00, 0x00, 0x01, 0x14, 0x00, 0x00, 0x00,
  0x34, 0x00, 0x00, 0x00, 0x07, 0x00, 0x00, 0x00, 0x00, 0x00, 0x00, 0x02,
  0x40, 0x00, 0x00, 0x00, 0x4c, 0xfa, 0xff, 0xff, 0x08, 0x00, 0x00, 0x00,
  0x14, 0x00, 0x00, 0x00, 0x01, 0x00, 0x00, 0x00, 0x00, 0x00, 0x00, 0x00,
  0x00, 0x00, 0x00, 0x00, 0x00, 0x00, 0x00, 0x00, 0x01, 0x00, 0x00, 0x00,
  0xfa, 0xa9, 0x95, 0x36, 0x10, 0x00, 0x00, 0x00, 0x61, 0x72, 0x69, 0x74,
  0x68, 0x2e, 0x63, 0x6f, 0x6e, 0x73, 0x74, 0x61, 0x6e, 0x74, 0x34, 0x31,
  0x00, 0x00, 0x00, 0x00, 0x01, 0x00, 0x00, 0x00, 0x10, 0x00, 0x00, 0x00,
  0xc2, 0xfa, 0xff, 0xff, 0x00, 0x00, 0x00, 0x01, 0x14, 0x00, 0x00, 0x00,
  0x30, 0x00, 0x00, 0x00, 0x07, 0x00, 0x00, 0x00, 0x00, 0x00, 0x00, 0x02,
  0x38, 0x00, 0x00, 0x00, 0xac, 0xfa, 0xff, 0xff, 0x08, 0x00, 0x00, 0x00,
  0x10, 0x00, 0x00, 0x00, 0x01, 0x00, 0x00, 0x00, 0x00, 0x00, 0x00, 0x00,
  0x00, 0x00, 0x00, 0x00, 0x01, 0x00, 0x00, 0x00, 0xd4, 0x9a, 0x95, 0x36,
  0x0f, 0x00, 0x00, 0x00, 0x61, 0x72, 0x69, 0x74, 0x68, 0x2e, 0x63, 0x6f,
  0x6e, 0x73, 0x74, 0x61, 0x6e, 0x74, 0x34, 0x00, 0x01, 0x00, 0x00, 0x00,
  0x10, 0x00, 0x00, 0x00, 0x1a, 0xfb, 0xff, 0xff, 0x00, 0x00, 0x00, 0x01,
  0x14, 0x00, 0x00, 0x00, 0x30, 0x00, 0x00, 0x00, 0x06, 0x00, 0x00, 0x00,
  0x00, 0x00, 0x00, 0x02, 0x38, 0x00, 0x00, 0x00, 0x04, 0xfb, 0xff, 0xff,
  0x08, 0x00, 0x00, 0x00, 0x10, 0x00, 0x00, 0x00, 0x01, 0x00, 0x00, 0x00,
  0x00, 0x00, 0x00, 0x00, 0x00, 0x00, 0x00, 0x00, 0x01, 0x00, 0x00, 0x00,
  0x9f, 0x97, 0x95, 0x36, 0x0f, 0x00, 0x00, 0x00, 0x61, 0x72, 0x69, 0x74,
  0x68, 0x2e, 0x63, 0x6f, 0x6e, 0x73, 0x74, 0x61, 0x6e, 0x74, 0x35, 0x00,
  0x01, 0x00, 0x00, 0x00, 0x10, 0x00, 0x00, 0x00, 0x72, 0xfb, 0xff, 0xff,
  0x00, 0x00, 0x00, 0x01, 0x14, 0x00, 0x00, 0x00, 0x34, 0x00, 0x00, 0x00,
  0x05, 0x00, 0x00, 0x00, 0x00, 0x00, 0x00, 0x09, 0x4c, 0x00, 0x00, 0x00,
  0x5c, 0xfb, 0xff, 0xff, 0x08, 0x00, 0x00, 0x00, 0x14, 0x00, 0x00, 0x00,
  0x01, 0x00, 0x00, 0x00, 0x00, 0x00, 0x00, 0x00, 0x00, 0x00, 0x00, 0x00,
  0x00, 0x00, 0x00, 0x00, 0x01, 0x00, 0x00, 0x00, 0x9c, 0x30, 0x71, 0x3b,
  0x1c, 0x00, 0x00, 0x00, 0x6d, 0x6f, 0x64, 0x65, 0x6c, 0x2f, 0x64, 0x65,
  0x6e, 0x73, 0x65, 0x2f, 0x54, 0x65, 0x6e, 0x73, 0x6f, 0x72, 0x64, 0x6f,
  0x74, 0x2f, 0x4d, 0x61, 0x74, 0x4d, 0x75, 0x6c, 0x00, 0x00, 0x00, 0x00,
  0x02, 0x00, 0x00, 0x00, 0x0b, 0x00, 0x00, 0x00, 0x10, 0x00, 0x00, 0x00,
  0xe2, 0xfb, 0xff, 0xff, 0x00, 0x00, 0x00, 0x01, 0x14, 0x00, 0x00, 0x00,
  0xa4, 0x01, 0x00, 0x00, 0x04, 0x00, 0x00, 0x00, 0x00, 0x00, 0x00, 0x02,
  0xc0, 0x01, 0x00, 0x00, 0xcc, 0xfb, 0xff, 0xff, 0x08, 0x00, 0x00, 0x00,
  0x08, 0x01, 0x00, 0x00, 0x20, 0x00, 0x00, 0x00, 0x00, 0x00, 0x00, 0x00,
  0x00, 0x00, 0x00, 0x00, 0x00, 0x00, 0x00, 0x00, 0x00, 0x00, 0x00, 0x00,
  0x00, 0x00, 0x00, 0x00, 0x00, 0x00, 0x00, 0x00, 0x00, 0x00, 0x00, 0x00,
  0x00, 0x00, 0x00, 0x00, 0x00, 0x00, 0x00, 0x00, 0x00, 0x00, 0x00, 0x00,
  0x00, 0x00, 0x00, 0x00, 0x00, 0x00, 0x00, 0x00, 0x00, 0x00, 0x00, 0x00,
  0x00, 0x00, 0x00, 0x00, 0x00, 0x00, 0x00, 0x00, 0x00, 0x00, 0x00, 0x00,
  0x00, 0x00, 0x00, 0x00, 0x00, 0x00, 0x00, 0x00, 0x00, 0x00, 0x00, 0x00,
  0x00, 0x00, 0x00, 0x00, 0x00, 0x00, 0x00, 0x00, 0x00, 0x00, 0x00, 0x00,
  0x00, 0x00, 0x00, 0x00, 0x00, 0x00, 0x00, 0x00, 0x00, 0x00, 0x00, 0x00,
  0x00, 0x00, 0x00, 0x00, 0x00, 0x00, 0x00, 0x00, 0x00, 0x00, 0x00, 0x00,
  0x00, 0x00, 0x00, 0x00, 0x00, 0x00, 0x00, 0x00, 0x00, 0x00, 0x00, 0x00,
  0x00, 0x00, 0x00, 0x00, 0x00, 0x00, 0x00, 0x00, 0x00, 0x00, 0x00, 0x00,
  0x00, 0x00, 0x00, 0x00, 0x00, 0x00, 0x00, 0x00, 0x00, 0x00, 0x00, 0x00,
  0x00, 0x00, 0x00, 0x00, 0x00, 0x00, 0x00, 0x00, 0x00, 0x00, 0x00, 0x00,
  0x00, 0x00, 0x00, 0x00, 0x00, 0x00, 0x00, 0x00, 0x00, 0x00, 0x00, 0x00,
  0x00, 0x00, 0x00, 0x00, 0x00, 0x00, 0x00, 0x00, 0x00, 0x00, 0x00, 0x00,
  0x00, 0x00, 0x00, 0x00, 0x00, 0x00, 0x00, 0x00, 0x00, 0x00, 0x00, 0x00,
  0x00, 0x00, 0x00, 0x00, 0x00, 0x00, 0x00, 0x00, 0x00, 0x00, 0x00, 0x00,
  0x00, 0x00, 0x00, 0x00, 0x00, 0x00, 0x00, 0x00, 0x00, 0x00, 0x00, 0x00,
  0x00, 0x00, 0x00, 0x00, 0x00, 0x00, 0x00, 0x00, 0x00, 0x00, 0x00, 0x00,
  0x00, 0x00, 0x00, 0x00, 0x00, 0x00, 0x00, 0x00, 0x00, 0x00, 0x00, 0x00,
  0x00, 0x00, 0x00, 0x00, 0x00, 0x00, 0x00, 0x00, 0x00, 0x00, 0x00, 0x00,
  0x20, 0x00, 0x00, 0x00, 0x88, 0x37, 0x2c, 0x36, 0x9b, 0x47, 0x30, 0x36,
  0x25, 0x81, 0x23, 0x36, 0x01, 0xc2, 0x1c, 0x36, 0xa9, 0x69, 0x30, 0x36,
  0xbe, 0x3b, 0x2e, 0x36, 0xa8, 0x1b, 0x24, 0x36, 0xec, 0x94, 0x2d, 0x36,
  0x59, 0xd9, 0x2d, 0x36, 0x04, 0x4d, 0x12, 0x36, 0x0d, 0x08, 0x2f, 0x36,
  0xf9, 0xbc, 0x23, 0x36, 0x1b, 0xe6, 0x20, 0x36, 0xd8, 0xa2, 0x2e, 0x36,
  0xff, 0x88, 0x30, 0x36, 0x44, 0x89, 0x30, 0x36, 0x04, 0xab, 0x28, 0x36,
  0xa3, 0x06, 0x28, 0x36, 0x8a, 0x89, 0x2d, 0x36, 0x50, 0x40, 0x20, 0x36,
  0x8f, 0x47, 0x1e, 0x36, 0xa9, 0x8e, 0x2f, 0x36, 0x6e, 0xa0, 0x29, 0x36,
  0xce, 0xe3, 0x25, 0x36, 0x2b, 0xd4, 0x2d, 0x36, 0x63, 0x9a, 0x2f, 0x36,
  0x2e, 0x59, 0x28, 0x36, 0x33, 0x2c, 0x2c, 0x36, 0xed, 0x96, 0x22, 0x36,
  0x03, 0x31, 0x2e, 0x36, 0x60, 0x01, 0x2b, 0x36, 0x92, 0x24, 0x2d, 0x36,
  0x23, 0x00, 0x00, 0x00, 0x6d, 0x6f, 0x64, 0x65, 0x6c, 0x2f, 0x63, 0x6f,
  0x6e, 0x76, 0x32, 0x64, 0x2f, 0x42, 0x69, 0x61, 0x73, 0x41, 0x64, 0x64,
  0x2f, 0x52, 0x65, 0x61, 0x64, 0x56, 0x61, 0x72, 0x69, 0x61, 0x62, 0x6c,
  0x65, 0x4f, 0x70, 0x00, 0x01, 0x00, 0x00, 0x00, 0x20, 0x00, 0x00, 0x00,
  0xc2, 0xfd, 0xff, 0xff, 0x00, 0x00, 0x00, 0x01, 0x14, 0x00, 0x00, 0x00,
  0xa4, 0x01, 0x00, 0x00, 0x03, 0x00, 0x00, 0x00, 0x00, 0x00, 0x00, 0x09,
  0xc4, 0x01, 0x00, 0x00, 0xac, 0xfd, 0xff, 0xff, 0x08, 0x00, 0x00, 0x00,
  0x08, 0x01, 0x00, 0x00, 0x20, 0x00, 0x00, 0x00, 0x00, 0x00, 0x00, 0x00,
  0x00, 0x00, 0x00, 0x00, 0x00, 0x00, 0x00, 0x00, 0x00, 0x00, 0x00, 0x00,
  0x00, 0x00, 0x00, 0x00, 0x00, 0x00, 0x00, 0x00, 0x00, 0x00, 0x00, 0x00,
  0x00, 0x00, 0x00, 0x00, 0x00, 0x00, 0x00, 0x00, 0x00, 0x00, 0x00, 0x00,
  0x00, 0x00, 0x00, 0x00, 0x00, 0x00, 0x00, 0x00, 0x00, 0x00, 0x00, 0x00,
  0x00, 0x00, 0x00, 0x00, 0x00, 0x00, 0x00, 0x00, 0x00, 0x00, 0x00, 0x00,
  0x00, 0x00, 0x00, 0x00, 0x00, 0x00, 0x00, 0x00, 0x00, 0x00, 0x00, 0x00,
  0x00, 0x00, 0x00, 0x00, 0x00, 0x00, 0x00, 0x00, 0x00, 0x00, 0x00, 0x00,
  0x00, 0x00, 0x00, 0x00, 0x00, 0x00, 0x00, 0x00, 0x00, 0x00, 0x00, 0x00,
  0x00, 0x00, 0x00, 0x00, 0x00, 0x00, 0x00, 0x00, 0x00, 0x00, 0x00, 0x00,
  0x00, 0x00, 0x00, 0x00, 0x00, 0x00, 0x00, 0x00, 0x00, 0x00, 0x00, 0x00,
  0x00, 0x00, 0x00, 0x00, 0x00, 0x00, 0x00, 0x00, 0x00, 0x00, 0x00, 0x00,
  0x00, 0x00, 0x00, 0x00, 0x00, 0x00, 0x00, 0x00, 0x00, 0x00, 0x00, 0x00,
  0x00, 0x00, 0x00, 0x00, 0x00, 0x00, 0x00, 0x00, 0x00, 0x00, 0x00, 0x00,
  0x00, 0x00, 0x00, 0x00, 0x00, 0x00, 0x00, 0x00, 0x00, 0x00, 0x00, 0x00,
  0x00, 0x00, 0x00, 0x00, 0x00, 0x00, 0x00, 0x00, 0x00, 0x00, 0x00, 0x00,
  0x00, 0x00, 0x00, 0x00, 0x00, 0x00, 0x00, 0x00, 0x00, 0x00, 0x00, 0x00,
  0x00, 0x00, 0x00, 0x00, 0x00, 0x00, 0x00, 0x00, 0x00, 0x00, 0x00, 0x00,
  0x00, 0x00, 0x00, 0x00, 0x00, 0x00, 0x00, 0x00, 0x00, 0x00, 0x00, 0x00,
  0x00, 0x00, 0x00, 0x00, 0x00, 0x00, 0x00, 0x00, 0x00, 0x00, 0x00, 0x00,
  0x00, 0x00, 0x00, 0x00, 0x00, 0x00, 0x00, 0x00, 0x00, 0x00, 0x00, 0x00,
  0x00, 0x00, 0x00, 0x00, 0x00, 0x00, 0x00, 0x00, 0x00, 0x00, 0x00, 0x00,
  0x20, 0x00, 0x00, 0x00, 0x99, 0x37, 0x2c, 0x36, 0xad, 0x47, 0x30, 0x36,
  0x36, 0x81, 0x23, 0x36, 0x11, 0xc2, 0x1c, 0x36, 0xbb, 0x69, 0x30, 0x36,
  0xd0, 0x3b, 0x2e, 0x36, 0xb9, 0x1b, 0x24, 0x36, 0xfe, 0x94, 0x2d, 0x36,
  0x6b, 0xd9, 0x2d, 0x36, 0x13, 0x4d, 0x12, 0x36, 0x1f, 0x08, 0x2f, 0x36,
  0x0a, 0xbd, 0x23, 0x36, 0x2b, 0xe6, 0x20, 0x36, 0xea, 0xa2, 0x2e, 0x36,
  0x11, 0x89, 0x30, 0x36, 0x56, 0x89, 0x30, 0x36, 0x15, 0xab, 0x28, 0x36,
  0xb4, 0x06, 0x28, 0x36, 0x9c, 0x89, 0x2d, 0x36, 0x60, 0x40, 0x20, 0x36,
  0x9f, 0x47, 0x1e, 0x36, 0xbb, 0x8e, 0x2f, 0x36, 0x7f, 0xa0, 0x29, 0x36,
  0xdf, 0xe3, 0x25, 0x36, 0x3d, 0xd4, 0x2d, 0x36, 0x75, 0x9a, 0x2f, 0x36,
  0x3f, 0x59, 0x28, 0x36, 0x44, 0x2c, 0x2c, 0x36, 0xfe, 0x96, 0x22, 0x36,
  0x15, 0x31, 0x2e, 0x36, 0x71, 0x01, 0x2b, 0x36, 0xa4, 0x24, 0x2d, 0x36,
  0x25, 0x00, 0x00, 0x00, 0x6d, 0x6f, 0x64, 0x65, 0x6c, 0x2f, 0x63, 0x6f,
  0x6e, 0x76, 0x32, 0x64, 0x2f, 0x52, 0x65, 0x6c, 0x75, 0x3b, 0x6d, 0x6f,
  0x64, 0x65, 0x6c, 0x2f, 0x63, 0x6f, 0x6e, 0x76, 0x32, 0x64, 0x2f, 0x43,
  0x6f, 0x6e, 0x76, 0x32, 0x44, 0x00, 0x00, 0x00, 0x04, 0x00, 0x00, 0x00,
  0x20, 0x00, 0x00, 0x00, 0x05, 0x00, 0x00, 0x00, 0x05, 0x00, 0x00, 0x00,
  0x01, 0x00, 0x00, 0x00, 0xb2, 0xff, 0xff, 0xff, 0x00, 0x00, 0x00, 0x01,
  0x18, 0x00, 0x00, 0x00, 0x18, 0x00, 0x00, 0x00, 0x02, 0x00, 0x00, 0x00,
  0x00, 0x00, 0x00, 0x02, 0x2c, 0x00, 0x00, 0x00, 0x04, 0x00, 0x04, 0x00,
  0x04, 0x00, 0x00, 0x00, 0x1b, 0x00, 0x00, 0x00, 0x6d, 0x6f, 0x64, 0x65,
  0x6c, 0x2f, 0x72, 0x65, 0x73, 0x68, 0x61, 0x70, 0x65, 0x2f, 0x52, 0x65,
  0x73, 0x68, 0x61, 0x70, 0x65, 0x2f, 0x73, 0x68, 0x61, 0x70, 0x65, 0x00,
  0x01, 0x00, 0x00, 0x00, 0x03, 0x00, 0x00, 0x00, 0x00, 0x00, 0x16, 0x00,
  0x1c, 0x00, 0x18, 0x00, 0x17, 0x00, 0x10, 0x00, 0x0c, 0x00, 0x08, 0x00,
  0x00, 0x00, 0x00, 0x00, 0x00, 0x00, 0x07, 0x00, 0x16, 0x00, 0x00, 0x00,
  0x00, 0x00, 0x00, 0x01, 0x20, 0x00, 0x00, 0x00, 0x40, 0x00, 0x00, 0x00,
  0x01, 0x00, 0x00, 0x00, 0x00, 0x00, 0x00, 0x09, 0x4c, 0x00, 0x00, 0x00,
  0x0c, 0x00, 0x0c, 0x00, 0x00, 0x00, 0x00, 0x00, 0x08, 0x00, 0x04, 0x00,
  0x0c, 0x00, 0x00, 0x00, 0x08, 0x00, 0x00, 0x00, 0x14, 0x00, 0x00, 0x00,
  0x01, 0x00, 0x00, 0x00, 0x80, 0xff, 0xff, 0xff, 0xff, 0xff, 0xff, 0xff,
  0x00, 0x00, 0x00, 0x00, 0x01, 0x00, 0x00, 0x00, 0xe6, 0xff, 0x7f, 0x3f,
  0x13, 0x00, 0x00, 0x00, 0x73, 0x65, 0x72, 0x76, 0x69, 0x6e, 0x67, 0x5f,
  0x64, 0x65, 0x66, 0x61, 0x75, 0x6c, 0x74, 0x5f, 0x78, 0x3a, 0x30, 0x00,
  0x04, 0x00, 0x00, 0x00, 0x01, 0x00, 0x00, 0x00, 0x20, 0x00, 0x00, 0x00,
  0x60, 0x00, 0x00, 0x00, 0x01, 0x00, 0x00, 0x00, 0x05, 0x00, 0x00, 0x00,
  0x64, 0x00, 0x00, 0x00, 0x48, 0x00, 0x00, 0x00, 0x2c, 0x00, 0x00, 0x00,
  0x18, 0x00, 0x00, 0x00, 0x04, 0x00, 0x00, 0x00, 0xbc, 0xff, 0xff, 0xff,
  0x19, 0x00, 0x00, 0x00, 0x02, 0x00, 0x00, 0x00, 0x00, 0x00, 0x00, 0x19,
  0xcc, 0xff, 0xff, 0xff, 0x09, 0x00, 0x00, 0x00, 0x05, 0x00, 0x00, 0x00,
  0x00, 0x00, 0x00, 0x09, 0xf4, 0xff, 0xff, 0xff, 0x2c, 0x00, 0x00, 0x00,
  0x00, 0x00, 0x00, 0x2c, 0x0c, 0x00, 0x0c, 0x00, 0x0b, 0x00, 0x00, 0x00,
  0x00, 0x00, 0x04, 0x00, 0x0c, 0x00, 0x00, 0x00, 0x16, 0x00, 0x00, 0x00,
  0x00, 0x00, 0x00, 0x16, 0x0c, 0x00, 0x10, 0x00, 0x0f, 0x00, 0x00, 0x00,
  0x08, 0x00, 0x04, 0x00, 0x0c, 0x00, 0x00, 0x00, 0x03, 0x00, 0x00, 0x00,
  0x03, 0x00, 0x00, 0x00, 0x00, 0x00, 0x00, 0x03
};
const int model_data_len = 9536;
