#include "model.h"

alignas(8) const unsigned char model_data[] = {
  0x20, 0x00, 0x00, 0x00, 0x54, 0x46, 0x4c, 0x33, 0x00, 0x00, 0x00, 0x00,
  0x14, 0x00, 0x20, 0x00, 0x1c, 0x00, 0x18, 0x00, 0x14, 0x00, 0x10, 0x00,
  0x0c, 0x00, 0x00, 0x00, 0x08, 0x00, 0x04, 0x00, 0x14, 0x00, 0x00, 0x00,
  0x1c, 0x00, 0x00, 0x00, 0x80, 0x00, 0x00, 0x00, 0xd8, 0x00, 0x00, 0x00,
  0xb4, 0x13, 0x00, 0x00, 0xc4, 0x13, 0x00, 0x00, 0x90, 0x24, 0x00, 0x00,
  0x03, 0x00, 0x00, 0x00, 0x01, 0x00, 0x00, 0x00, 0x04, 0x00, 0x00, 0x00,
  0xa2, 0xea, 0xff, 0xff, 0x0c, 0x00, 0x00, 0x00, 0x1c, 0x00, 0x00, 0x00,
  0x3c, 0x00, 0x00, 0x00, 0x0f, 0x00, 0x00, 0x00, 0x73, 0x65, 0x72, 0x76,
  0x69, 0x6e, 0x67, 0x5f, 0x64, 0x65, 0x66, 0x61, 0x75, 0x6c, 0x74, 0x00,
  0x01, 0x00, 0x00, 0x00, 0x04, 0x00, 0x00, 0x00, 0x9c, 0xff, 0xff, 0xff,
  0x1c, 0x00, 0x00, 0x00, 0x04, 0x00, 0x00, 0x00, 0x08, 0x00, 0x00, 0x00,
  0x6f, 0x75, 0x74, 0x70, 0x75, 0x74, 0x5f, 0x30, 0x00, 0x00, 0x00, 0x00,
  0x01, 0x00, 0x00, 0x00, 0x04, 0x00, 0x00, 0x00, 0x32, 0xec, 0xff, 0xff,
  0x04, 0x00, 0x00, 0x00, 0x01, 0x00, 0x00, 0x00, 0x78, 0x00, 0x00, 0x00,
  0x02, 0x00, 0x00, 0x00, 0x34, 0x00, 0x00, 0x00, 0x04, 0x00, 0x00, 0x00,
  0xdc, 0xff, 0xff, 0xff, 0x1a, 0x00, 0x00, 0x00, 0x04, 0x00, 0x00, 0x00,
  0x13, 0x00, 0x00, 0x00, 0x43, 0x4f, 0x4e, 0x56, 0x45, 0x52, 0x53, 0x49,
  0x4f, 0x4e, 0x5f, 0x4d, 0x45, 0x54, 0x41, 0x44, 0x41, 0x54, 0x41, 0x00,
  0x08, 0x00, 0x0c, 0x00, 0x08, 0x00, 0x04, 0x00, 0x08, 0x00, 0x00, 0x00,
  0x19, 0x00, 0x00, 0x00, 0x04, 0x00, 0x00, 0x00, 0x13, 0x00, 0x00, 0x00,
  0x6d, 0x69, 0x6e, 0x5f, 0x72, 0x75, 0x6e, 0x74, 0x69, 0x6d, 0x65, 0x5f,
  0x76, 0x65, 0x72, 0x73, 0x69, 0x6f, 0x6e, 0x00, 0x1b, 0x00, 0x00, 0x00,
  0xd8, 0x12, 0x00, 0x00, 0xd0, 0x12, 0x00, 0x00, 0xb4, 0x12, 0x00, 0x00,
  0x84, 0x0f, 0x00, 0x00, 0xf4, 0x0e, 0x00, 0x00, 0x34, 0x0e, 0x00, 0x00,
  0xe4, 0x0d, 0x00, 0x00, 0x94, 0x0d, 0x00, 0x00, 0x8c, 0x0d, 0x00, 0x00,
  0x84, 0x0d, 0x00, 0x00, 0x74, 0x0c, 0x00, 0x00, 0x64, 0x0b, 0x00, 0x00,
  0x54, 0x0a, 0x00, 0x00, 0x44, 0x09, 0x00, 0x00, 0x34, 0x07, 0x00, 0x00,
  0x24, 0x05, 0x00, 0x00, 0x14, 0x03, 0x00, 0x00, 0x04, 0x01, 0x00, 0x00,
  0xfc, 0x00, 0x00, 0x00, 0xf4, 0x00, 0x00, 0x00, 0xd4, 0x00, 0x00, 0x00,
  0xa4, 0x00, 0x00, 0x00, 0x9c, 0x00, 0x00, 0x00, 0x94, 0x00, 0x00, 0x00,
  0x8c, 0x00, 0x00, 0x00, 0x6c, 0x00, 0x00, 0x00, 0x04, 0x00, 0x00, 0x00,
  0x0e, 0xed, 0xff, 0xff, 0x04, 0x00, 0x00, 0x00, 0x58, 0x00, 0x00, 0x00,
  0x0c, 0x00, 0x00, 0x00, 0x08, 0x00, 0x0e, 0x00, 0x08, 0x00, 0x04, 0x00,
  0x08, 0x00, 0x00, 0x00, 0x10, 0x00, 0x00, 0x00, 0x28, 0x00, 0x00, 0x00,
  0x00, 0x00, 0x06, 0x00, 0x08, 0x00, 0x04, 0x00, 0x06, 0x00, 0x00, 0x00,
  0x04, 0x00, 0x00, 0x00, 0x01, 0x00, 0x00, 0x00, 0xeb, 0x03, 0x00, 0x00,
  0x00, 0x00, 0x0a, 0x00, 0x10, 0x00, 0x0c, 0x00, 0x08, 0x00, 0x04, 0x00,
  0x0a, 0x00, 0x00, 0x00, 0x03, 0x00, 0x00, 0x00, 0x02, 0x00, 0x00, 0x00,
  0x04, 0x00, 0x00, 0x00, 0x06, 0x00, 0x00, 0x00, 0x32, 0x2e, 0x31, 0x35,
  0x2e, 0x31, 0x00, 0x00, 0x72, 0xed, 0xff, 0xff, 0x04, 0x00, 0x00, 0x00,
  0x10, 0x00, 0x00, 0x00, 0x32, 0x2e, 0x30, 0x2e, 0x30, 0x00, 0x00, 0x00,
  0x00, 0x00, 0x00, 0x00, 0x00, 0x00, 0x00, 0x00, 0xec, 0xdd, 0xff, 0xff,
  0xf0, 0xdd, 0xff, 0xff, 0xf4, 0xdd, 0xff, 0xff, 0x9a, 0xed, 0xff, 0xff,
  0x04, 0x00, 0x00, 0x00, 0x20, 0x00, 0x00, 0x00, 0xff, 0x7f, 0xff, 0x7f,
  0xff, 0x7f, 0xff, 0x7f, 0xff, 0x7f, 0xff, 0x7f, 0xff, 0x7f, 0xff, 0x7f,
  0xff, 0x7f, 0xff, 0x7f, 0xff, 0x7f, 0xff, 0x7f, 0xff, 0x7f, 0xff, 0x7f,
  0xff, 0x7f, 0xff, 0x7f, 0xc6, 0xed, 0xff, 0xff, 0x04, 0x00, 0x00, 0x00,
  0x10, 0x00, 0x00, 0x00, 0xff, 0xff, 0xff, 0xff, 0xff, 0xff, 0xff, 0xff,
  0xff, 0xff, 0xff, 0xff, 0xff, 0xff, 0xff, 0xff, 0x40, 0xde, 0xff, 0xff,
  0x44, 0xde, 0xff, 0xff, 0xea, 0xed, 0xff, 0xff, 0x04, 0x00, 0x00, 0x00,
  0x00, 0x02, 0x00, 0x00, 0x3b, 0x6d, 0x31, 0xff, 0xf6, 0xbf, 0x8d, 0x75,
  0x33, 0x6a, 0x70, 0xce, 0xc6, 0xed, 0xf5, 0x4b, 0x79, 0x9d, 0x9a, 0x3a,
  0xc3, 0xd3, 0xfa, 0x5f, 0x01, 0x70, 0x4b, 0x4a, 0x20, 0x4c, 0xb3, 0x30,
  0x31, 0x3f, 0xdc, 0xaf, 0x11, 0x8f, 0x4d, 0x6d, 0xa9, 0x7f, 0x0b, 0xe0,
  0xf3, 0xfa, 0x9b, 0xc3, 0xe4, 0x19, 0x72, 0x3e, 0x00, 0x4f, 0x86, 0x63,
  0x39, 0xcd, 0xed, 0x41, 0xed, 0x40, 0xd6, 0x8c, 0xf6, 0x65, 0xa6, 0xfa,
  0xba, 0x31, 0x28, 0x6f, 0x04, 0xef, 0x16, 0xe1, 0xd7, 0x8d, 0x0d, 0x94,
  0xbf, 0xbe, 0xbf, 0xce, 0x41, 0x49, 0x28, 0x81, 0x06, 0x76, 0xd6, 0x1a,
  0x03, 0x47, 0xb5, 0xa2, 0x5a, 0x2d, 0x2d, 0xa8, 0xcb, 0xee, 0x19, 0x9e,
  0x73, 0x93, 0xa0, 0xc9, 0x81, 0xbe, 0xb7, 0xa0, 0x6e, 0x1a, 0x6e, 0x1a,
  0xa1, 0xe0, 0x7a, 0x62, 0x15, 0xfe, 0xaf, 0xd1, 0xe6, 0x05, 0x48, 0x87,
  0xfd, 0xc2, 0x93, 0x47, 0x8b, 0x4e, 0xd1, 0xb4, 0xef, 0x84, 0xa7, 0xe8,
  0x14, 0x5d, 0x04, 0xf4, 0x74, 0x75, 0x56, 0xcd, 0xbb, 0x49, 0x61, 0x07,
  0x6f, 0x84, 0xc4, 0x30, 0x12, 0xc7, 0xc4, 0x57, 0x5c, 0xa4, 0x52, 0x21,
  0x05, 0x99, 0x53, 0x25, 0xd8, 0x5f, 0x8c, 0x2a, 0x54, 0x96, 0x0d, 0xa1,
  0x44, 0xec, 0xcf, 0xe7, 0x54, 0xab, 0x58, 0x13, 0x9d, 0xd8, 0x97, 0x0d,
  0x2f, 0xb5, 0x3e, 0xe4, 0xdd, 0x1d, 0x38, 0xb0, 0x06, 0x09, 0xa7, 0x3a,
  0x08, 0xfc, 0x88, 0x11, 0xe4, 0xca, 0xb0, 0xe2, 0x84, 0xdb, 0x50, 0xcc,
  0xda, 0xd7, 0x52, 0x32, 0xc1, 0x71, 0xdc, 0x4b, 0x7c, 0x74, 0x31, 0x35,
  0xe5, 0x9c, 0x66, 0x54, 0xbf, 0xf6, 0x7d, 0xd6, 0x31, 0x6c, 0x54, 0x3e,
  0x7b, 0xe8, 0xfd, 0xb9, 0x61, 0xcd, 0x6f, 0x6f, 0x54, 0x2b, 0x6e, 0xd3,
  0x1b, 0xe8, 0x1d, 0xdb, 0x6d, 0xae, 0x24, 0xc8, 0x9d, 0xf5, 0x4c, 0xb9,
  0x56, 0x55, 0x09, 0x5e, 0x01, 0x85, 0xfa, 0x66, 0xca, 0x2a, 0xf8, 0x67,
  0xd8, 0x19, 0x5e, 0x32, 0x97, 0xce, 0xb0, 0xf7, 0x17, 0x7e, 0x8c, 0x6e,
  0xb3, 0x00, 0x37, 0xd4, 0x4b, 0xa0, 0x4d, 0x60, 0xc8, 0x98, 0x11, 0xf6,
  0x54, 0xf9, 0xab, 0x30, 0x5f, 0x37, 0xb7, 0x83, 0x11, 0xf0, 0x24, 0xfa,
  0x01, 0x86, 0xa1, 0x1f, 0x83, 0xb7, 0x2b, 0x14, 0x5c, 0x42, 0xb8, 0xe6,
  0x07, 0xef, 0x1b, 0x66, 0xd5, 0x9c, 0x36, 0x1b, 0x95, 0xb7, 0xba, 0xfa,
  0x65, 0x8b, 0xd2, 0xab, 0xfa, 0x59, 0xba, 0x9f, 0x70, 0x84, 0x50, 0xec,
  0xe5, 0x0c, 0xcd, 0x68, 0x05, 0xe1, 0xcb, 0xdd, 0x90, 0x71, 0xf9, 0x6c,
  0xad, 0x6e, 0x37, 0x17, 0x8d, 0x0c, 0x30, 0x86, 0x8c, 0x71, 0x85, 0xc6,
  0xdb, 0x56, 0x17, 0xa0, 0xb1, 0x76, 0x7b, 0x26, 0x10, 0x6f, 0x6a, 0xb6,
  0xb6, 0xb5, 0xeb, 0x63, 0x95, 0x15, 0x66, 0xfc, 0x62, 0x74, 0x54, 0x38,
  0xf3, 0xcf, 0x9b, 0x46, 0x87, 0x16, 0xd9, 0x31, 0x2f, 0xef, 0x6e, 0x54,
  0x02, 0x4b, 0x1f, 0xfa, 0x4f, 0xa4, 0xc8, 0x30, 0x0e, 0x2f, 0x56, 0x65,
  0x63, 0xce, 0x89, 0x3b, 0x1d, 0x97, 0xb6, 0x68, 0x2a, 0xb5, 0x73, 0xf1,
  0x68, 0x40, 0x1d, 0xab, 0x48, 0x34, 0xf3, 0x9c, 0x7e, 0xaa, 0x38, 0xd3,
  0x53, 0x35, 0xc9, 0x0d, 0x2e, 0x47, 0xe8, 0x73, 0x07, 0x8b, 0x91, 0x2b,
  0xaa, 0x8b, 0x91, 0xf2, 0x51, 0xf3, 0xd7, 0x27, 0x9a, 0x48, 0xbc, 0xe8,
  0xd9, 0xc6, 0xb3, 0x9f, 0x6f, 0xe5, 0x30, 0x57, 0x96, 0x02, 0xaa, 0xc5,
  0x5c, 0xa5, 0xba, 0x3f, 0x43, 0x28, 0x60, 0xef, 0x2a, 0x21, 0xc8, 0x86,
  0x43, 0x61, 0x6e, 0xa5, 0x34, 0xa5, 0xe8, 0x5a, 0xe4, 0x29, 0x91, 0x1d,
  0xe8, 0xae, 0xdc, 0x6c, 0x2d, 0x6d, 0x3e, 0xf4, 0x5c, 0xf8, 0x24, 0xda,
  0xf6, 0xef, 0xff, 0xff, 0x04, 0x00, 0x00, 0x00, 0x00, 0x02, 0x00, 0x00,
  0x65, 0xfd, 0xb5, 0xe0, 0xee, 0x28, 0x27, 0xeb, 0xcb, 0x82, 0x9c, 0xa0,
  0xb0, 0x8f, 0x86, 0xd2, 0xa5, 0x66, 0x05, 0x67, 0x2d, 0x86, 0xb4, 0x15,
  0x6b, 0xfa, 0xfb, 0x1a, 0xa5, 0x43, 0x83, 0x2b, 0x0f, 0xed, 0x13, 0x62,
  0xa9, 0xd0, 0xc7, 0xda, 0x16, 0x52, 0xd1, 0x64, 0x13, 0xf0, 0x61, 0x28,
  0x34, 0xd9, 0xc6, 0xbc, 0x26, 0xd2, 0x49, 0xed, 0xd1, 0x02, 0xa1, 0x54,
  0x96, 0x25, 0xfa, 0xbd, 0xd4, 0x99, 0x30, 0x5e, 0x82, 0xe0, 0x50, 0xa5,
  0x34, 0xdd, 0x14, 0xb1, 0x56, 0xbe, 0xd0, 0x5a, 0x1b, 0xec, 0xa4, 0xe2,
  0x89, 0x39, 0x71, 0x9c, 0x10, 0x2a, 0xba, 0x0e, 0x12, 0x30, 0x57, 0x19,
  0xda, 0x76, 0x4a, 0x61, 0x8d, 0x6a, 0x6a, 0xbd, 0x90, 0x88, 0x89, 0x0c,
  0x0b, 0x12, 0xb0, 0x18, 0xe5, 0xbf, 0x5b, 0x4b, 0x74, 0x9e, 0xb4, 0x0e,
  0x3d, 0x56, 0x3e, 0x6a, 0xe4, 0x8d, 0x0b, 0xfe, 0x00, 0x5e, 0xf6, 0xa6,
  0xe0, 0x50, 0x70, 0x5c, 0xed, 0x28, 0xf3, 0x4f, 0x69, 0xad, 0xbb, 0x1a,
  0xe3, 0xaf, 0xc6, 0xfc, 0x66, 0x3e, 0x10, 0x23, 0x3d, 0x1b, 0xfb, 0x04,
  0xd2, 0xe9, 0xc7, 0x56, 0xbe, 0xcb, 0x54, 0xc7, 0xe5, 0xf1, 0x4f, 0x65,
  0xd5, 0x5b, 0xae, 0x26, 0x6b, 0x96, 0xf4, 0x36, 0xba, 0xd3, 0x02, 0x69,
  0xc1, 0x24, 0x28, 0x79, 0x84, 0x75, 0xf9, 0x71, 0x47, 0x78, 0x5f, 0x6c,
  0x3a, 0x8d, 0x56, 0x07, 0x0b, 0xdf, 0x42, 0x40, 0x02, 0xc8, 0x2e, 0x4f,
  0x56, 0x23, 0xbf, 0x40, 0x58, 0xc4, 0xce, 0x64, 0x51, 0x79, 0x1f, 0x86,
  0x6a, 0x29, 0x2a, 0x5a, 0x07, 0xd0, 0xdd, 0x4c, 0x1c, 0xaf, 0x2a, 0xd3,
  0x94, 0xf0, 0xcc, 0xb1, 0x2c, 0xab, 0xbb, 0x10, 0x06, 0x31, 0x35, 0x72,
  0xd1, 0xf8, 0xda, 0x0a, 0xc2, 0xae, 0x5b, 0xb3, 0x9c, 0x59, 0xec, 0x11,
  0x52, 0x5b, 0xcb, 0x78, 0xde, 0x7b, 0xfa, 0x24, 0xe1, 0x5f, 0x2b, 0xb6,
  0xf1, 0x9f, 0x3a, 0x88, 0xdf, 0x51, 0xa2, 0x85, 0x4c, 0xc3, 0xf1, 0xa2,
  0xba, 0x32, 0xd2, 0x62, 0x12, 0x49, 0x28, 0xac, 0x4d, 0x66, 0xc5, 0x38,
  0x5a, 0x67, 0x83, 0xe0, 0xe2, 0xff, 0x02, 0x17, 0xdc, 0x86, 0x6b, 0x05,
  0x13, 0xa8, 0xdb, 0xab, 0x9f, 0x02, 0x99, 0xa8, 0x3c, 0x57, 0xa6, 0xb1,
  0xda, 0x46, 0x99, 0x6e, 0x67, 0xc0, 0xbf, 0xf3, 0x05, 0x91, 0x9d, 0x14,
  0x0c, 0x92, 0xba, 0x25, 0xea, 0x53, 0x19, 0xa5, 0x4e, 0x61, 0xa3, 0x8b,
  0x0e, 0x49, 0x35, 0x04, 0x52, 0xe3, 0x3f, 0xb3, 0xb0, 0x0b, 0x24, 0x7e,
  0x1e, 0x19, 0x1e, 0xd7, 0x5e, 0xad, 0xc2, 0x6a, 0x87, 0xd2, 0xd8, 0x4e,
  0x6b, 0x62, 0x90, 0xff, 0xc3, 0xf3, 0xce, 0x28, 0xa1, 0x18, 0xc2, 0x07,
  0x21, 0x0a, 0xb3, 0x58, 0xa0, 0xfa, 0xf2, 0x1b, 0xab, 0x99, 0x1f, 0xb5,
  0xa1, 0x4c, 0xaf, 0x07, 0x1a, 0x49, 0x79, 0x60, 0x45, 0xa0, 0x78, 0x28,
  0x0f, 0x21, 0x04, 0x07, 0x26, 0xc2, 0xda, 0x68, 0x2f, 0x07, 0x8d, 0x4e,
  0xbd, 0xe5, 0x1f, 0x00, 0xb4, 0x87, 0xa5, 0xba, 0xae, 0xfd, 0x38, 0x94,
  0x70, 0x28, 0xde, 0xc5, 0xa1, 0xd4, 0x1a, 0xe0, 0x49, 0x55, 0xaf, 0xb7,
  0x55, 0x41, 0x82, 0x77, 0x56, 0xde, 0xe5, 0xb0, 0xc8, 0x1d, 0xa4, 0x95,
  0x73, 0x92, 0xb3, 0x21, 0x63, 0x4a, 0x51, 0xff, 0xb2, 0xbb, 0xce, 0xea,
  0x57, 0x5a, 0x19, 0x59, 0x8b, 0xf4, 0xc6, 0x9b, 0xa3, 0x85, 0x55, 0x62,
  0xbd, 0x92, 0x6a, 0xad, 0xf8, 0x2b, 0xeb, 0x5e, 0xba, 0x68, 0xb4, 0x8e,
  0x82, 0x1c, 0x23, 0xaf, 0xc3, 0x1d, 0xf8, 0x86, 0x1f, 0xcd, 0xbf, 0x3d,
  0xf9, 0x8f, 0xc7, 0xb3, 0x26, 0xd4, 0xa1, 0x5a, 0x81, 0x0b, 0x42, 0xde,
  0x23, 0x33, 0xd4, 0xa9, 0xa5, 0x07, 0xf8, 0x11, 0x02, 0xf2, 0xff, 0xff,
  0x04, 0x00, 0x00, 0x00, 0x00, 0x02, 0x00, 0x00, 0xe8, 0xd0, 0x78, 0x36,
  0x67, 0x74, 0x82, 0x72, 0x85, 0xf2, 0x05, 0x63, 0xb9, 0x33, 0xc1, 0xb6,
  0x39, 0x1a, 0x55, 0xe0, 0x73, 0x92, 0x61, 0x17, 0x54, 0x84, 0x3f, 0x95,
  0xb0, 0x41, 0x7b, 0x99, 0xc3, 0xff, 0xf1, 0x27, 0x17, 0x4a, 0x73, 0x88,
  0x9e, 0x35, 0x2a, 0x08, 0x6e, 0xca, 0x3f, 0xc1, 0xd4, 0xe0, 0xd0, 0x34,
  0x32, 0xad, 0x20, 0xfb, 0xab, 0xb5, 0x17, 0x76, 0x82, 0x2a, 0x00, 0x04,
  0xf7, 0x5a, 0x87, 0x19, 0x5d, 0xaa, 0xfd, 0x17, 0x6a, 0x7b, 0x9e, 0xc5,
  0x27, 0x56, 0xb5, 0xd2, 0xf2, 0x85, 0x0a, 0x29, 0x23, 0x2e, 0x7c, 0xa1,
  0x7d, 0x35, 0x55, 0xfe, 0xba, 0x42, 0x97, 0x08, 0xd8, 0xa1, 0x9b, 0x77,
  0x4e, 0x03, 0xe0, 0xdd, 0x7b, 0x06, 0xc3, 0xf7, 0x2d, 0xfd, 0xfa, 0x43,
  0xf6, 0x0d, 0x58, 0xfb, 0xc0, 0x96, 0x28, 0xe7, 0xdc, 0xab, 0x7f, 0x55,
  0x90, 0x01, 0x4f, 0xef, 0x9a, 0x4f, 0x4f, 0x55, 0xbf, 0xf3, 0xa5, 0xbe,
  0xa9, 0x0e, 0x27, 0x2d, 0xaa, 0x01, 0x57, 0x3e, 0x97, 0x8b, 0x0e, 0xa3,
  0xdd, 0xcb, 0xb8, 0x18, 0xed, 0x2e, 0xf8, 0x20, 0x07, 0x61, 0xb4, 0x1c,
  0xe3, 0xb3, 0x20, 0x3a, 0x92, 0x06, 0x54, 0x8a, 0xbc, 0x22, 0xb5, 0x15,
  0x7d, 0x23, 0xc9, 0x13, 0xe2, 0x9d, 0x1c, 0xb0, 0x47, 0x71, 0xb8, 0x7a,
  0xeb, 0xba, 0x4b, 0x58, 0x26, 0x99, 0xf5, 0xc8, 0x46, 0xef, 0x1d, 0xbb,
  0x11, 0x2e, 0x11, 0xbd, 0xe0, 0x85, 0x88, 0xbd, 0x2b, 0x23, 0x5a, 0x42,
  0xaa, 0x69, 0x89, 0x9d, 0xc8, 0x79, 0xee, 0x86, 0x2f, 0x2b, 0xfa, 0x7d,
  0xdc, 0x66, 0xb4, 0x2b, 0x9d, 0xb0, 0x7a, 0xe5, 0xe2, 0xbf, 0xce, 0xa9,
  0x42, 0x76, 0xeb, 0x74, 0x32, 0xbb, 0xcb, 0x3b, 0x45, 0xa5, 0x60, 0x2f,
  0x13, 0xb8, 0x03, 0x69, 0x28, 0x0d, 0xf4, 0x1a, 0x1c, 0xb9, 0x99, 0xf1,
  0xbc, 0x85, 0xbe, 0xa9, 0x7f, 0xd9, 0xed, 0x16, 0x7c, 0xde, 0x96, 0xba,
  0x41, 0x7d, 0x0e, 0xad, 0xa0, 0xa8, 0xae, 0xfb, 0x38, 0x13, 0xa2, 0x59,
  0x13, 0x14, 0x2a, 0x95, 0x38, 0xd9, 0xf2, 0x36, 0x26, 0xff, 0x0b, 0xe2,
  0xa9, 0x18, 0xed, 0x2a, 0xb3, 0x2d, 0xfe, 0x91, 0x52, 0xe2, 0x46, 0xf8,
  0x10, 0xa4, 0x44, 0xa4, 0x78, 0x30, 0x1f, 0x88, 0x87, 0x64, 0xb1, 0xba,
  0x40, 0x46, 0xac, 0xca, 0xc3, 0x86, 0x05, 0xe8, 0x8e, 0x90, 0x1f, 0x3e,
  0xed, 0x3b, 0xd7, 0x2a, 0x33, 0x8a, 0x40, 0x06, 0xdd, 0xd1, 0x5d, 0x56,
  0x49, 0x9b, 0xe0, 0x95, 0x22, 0x69, 0x88, 0x7b, 0x48, 0xf4, 0xcb, 0x03,
  0x52, 0x49, 0x83, 0xb7, 0x0a, 0x90, 0x50, 0xe5, 0x9e, 0x38, 0x5b, 0xed,
  0x7e, 0x1b, 0x04, 0x2d, 0x75, 0x92, 0x7d, 0x05, 0x84, 0x21, 0x5f, 0xa6,
  0x8c, 0xc4, 0x93, 0xa2, 0x0e, 0xdf, 0xc4, 0xbb, 0xb0, 0x78, 0x1f, 0x64,
  0x14, 0xdf, 0x6b, 0x74, 0x4b, 0x84, 0x1e, 0xf1, 0x78, 0xde, 0x4c, 0x40,
  0xde, 0xbc, 0xdd, 0x9c, 0x2b, 0x13, 0xff, 0x7c, 0x8a, 0x1a, 0x76, 0xfe,
  0x53, 0xa0, 0xc0, 0x76, 0x8b, 0xa6, 0x7d, 0x6b, 0xef, 0x27, 0xcd, 0xec,
  0xcd, 0xa5, 0x7c, 0x6c, 0x7a, 0x67, 0x88, 0xdc, 0xd6, 0x3f, 0xe0, 0x93,
  0x00, 0xdf, 0xb3, 0x8d, 0x0f, 0xed, 0xbc, 0xa0, 0x4f, 0xd2, 0x67, 0xc5,
  0x8e, 0x7b, 0xde, 0x1a, 0x0c, 0x29, 0x6f, 0x64, 0x9c, 0xd4, 0x67, 0x8a,
  0xe7, 0x88, 0xfc, 0x09, 0xbe, 0x1e, 0x2b, 0xd9, 0x86, 0x57, 0xe7, 0x25,
  0xf2, 0x12, 0x8b, 0x55, 0xf2, 0x5d, 0x33, 0xd2, 0x23, 0x47, 0x05, 0x74,
  0x40, 0x98, 0x32, 0x9e, 0x98, 0x51, 0x2b, 0x8f, 0x33, 0x69, 0x08, 0x06,
  0x14, 0x5a, 0xe1, 0x36, 0x46, 0xf8, 0x8b, 0x6d, 0xb6, 0x9a, 0x77, 0xb2,
  0x67, 0x50, 0x7b, 0xa3, 0x0e, 0xf4, 0xff, 0xff, 0x04, 0x00, 0x00, 0x00,
  0x00, 0x02, 0x00, 0x00, 0x2d, 0x74, 0xc7, 0x36, 0x85, 0xba, 0xc8, 0xa8,
  0xe3, 0x98, 0x77, 0x1d, 0x16, 0xad, 0x70, 0x3e, 0x93, 0x70, 0x4b, 0x25,
  0xf7, 0x46, 0x27, 0x6c, 0xfc, 0x55, 0xf2, 0x60, 0x69, 0x9f, 0x36, 0xc3,
  0x84, 0x24, 0xd2, 0x96, 0x0e, 0x6e, 0x3b, 0xf0, 0xd9, 0x7c, 0xf0, 0xa7,
  0xcb, 0x6a, 0x93, 0x5d, 0x59, 0xc2, 0x10, 0xe3, 0x7c, 0x1b, 0xaf, 0x06,
  0x18, 0xf4, 0xe5, 0xe3, 0x42, 0xb8, 0x6e, 0xe3, 0x8c, 0xc2, 0xce, 0xdc,
  0xf4, 0x46, 0x9a, 0x83, 0x91, 0xda, 0x18, 0xba, 0xee, 0xa5, 0x07, 0x1e,
  0x7e, 0x8e, 0xcb, 0xb5, 0xe3, 0xe2, 0x16, 0xbe, 0x5b, 0x76, 0x6c, 0xf1,
  0x4d, 0x1f, 0xa0, 0x4c, 0x9c, 0x73, 0xd9, 0x7d, 0x1e, 0xc1, 0xc8, 0x07,
  0xcd, 0x9c, 0x0b, 0x9c, 0x45, 0xe6, 0x90, 0x21, 0x16, 0xf9, 0x8d, 0xff,
  0xb7, 0x8e, 0xdb, 0x9b, 0x0c, 0x81, 0xe3, 0x06, 0x4b, 0x32, 0x3d, 0xca,
  0x74, 0xa6, 0x5d, 0x2d, 0x97, 0x90, 0x9d, 0x64, 0x2c, 0x8c, 0x0c, 0x5f,
  0x28, 0x12, 0x4a, 0xc2, 0xde, 0x25, 0xd3, 0x20, 0x8f, 0x4c, 0xff, 0xfe,
  0xf2, 0xc4, 0xf4, 0x2f, 0xd6, 0x01, 0x6a, 0x4e, 0xbc, 0xb2, 0x11, 0x5f,
  0x23, 0xaf, 0x62, 0xa0, 0x35, 0xc9, 0x46, 0x1d, 0x02, 0xad, 0xce, 0xb4,
  0x71, 0xee, 0xca, 0x35, 0x2d, 0x92, 0xc1, 0x2f, 0xfd, 0x66, 0x4d, 0xfd,
  0x6c, 0xfc, 0xf4, 0x6f, 0x9e, 0x00, 0xd7, 0xfb, 0x60, 0xa2, 0xfa, 0xa0,
  0xb4, 0x82, 0x7e, 0xe6, 0x92, 0xcc, 0xe7, 0xb7, 0xe0, 0x51, 0x41, 0xe3,
  0x36, 0x31, 0x21, 0x63, 0xc0, 0x7a, 0x02, 0xae, 0xe6, 0x99, 0x9d, 0x01,
  0xa0, 0x7b, 0xaf, 0xca, 0x15, 0x47, 0x6a, 0xce, 0x75, 0x93, 0x6a, 0x3f,
  0xeb, 0xad, 0x15, 0x0c, 0x60, 0xff, 0xd4, 0xff, 0x34, 0x64, 0xa4, 0x44,
  0x03, 0x0d, 0xc5, 0x0e, 0xaa, 0x46, 0x08, 0x9c, 0xe3, 0x43, 0x11, 0x3b,
  0x63, 0xeb, 0xa9, 0xd9, 0x0a, 0xa3, 0x3c, 0xe2, 0x8b, 0xcf, 0x99, 0x20,
  0x6d, 0xd9, 0x8f, 0x5f, 0x99, 0x87, 0xde, 0x2a, 0x75, 0x04, 0x89, 0x0a,
  0x31, 0xbb, 0x89, 0x16, 0x7c, 0xa6, 0x6d, 0x22, 0x34, 0xfb, 0xc1, 0x4d,
  0xc8, 0x4d, 0xe4, 0x76, 0x2c, 0xd6, 0x02, 0xb6, 0xf9, 0xf3, 0x4f, 0x3b,
  0xa7, 0x56, 0x6b, 0xdc, 0x18, 0x89, 0x5e, 0x72, 0x3c, 0x24, 0x8c, 0x88,
  0xee, 0x03, 0xc4, 0x7d, 0xcf, 0xfd, 0x29, 0x60, 0x01, 0x07, 0x74, 0xa5,
  0x23, 0xee, 0x68, 0x1a, 0xba, 0x9f, 0x1e, 0xa1, 0xa3, 0x99, 0x71, 0xb6,
  0x69, 0x6e, 0xc0, 0xe5, 0xd0, 0x38, 0x20, 0xbd, 0xdf, 0x92, 0xb6, 0xd5,
  0xde, 0x20, 0x9b, 0xea, 0x09, 0xfd, 0xff, 0xd6, 0xea, 0x3e, 0x9f, 0xbf,
  0x2d, 0xe4, 0xc8, 0x48, 0x7c, 0x45, 0xed, 0x31, 0x55, 0x7b, 0x4e, 0x5f,
  0x96, 0xdd, 0x39, 0xf8, 0x01, 0x63, 0xf3, 0xa0, 0x36, 0xc5, 0x45, 0x59,
  0xa0, 0xf2, 0x24, 0x9d, 0x30, 0x51, 0xf1, 0xb4, 0x3e, 0x53, 0xb1, 0x3c,
  0x71, 0x83, 0x29, 0x3e, 0x3e, 0xed, 0x93, 0x8e, 0x63, 0xaf, 0x93, 0x7c,
  0xd6, 0x59, 0xbe, 0x00, 0xa2, 0x2c, 0x72, 0x23, 0x83, 0xb5, 0x71, 0xbc,
  0xa0, 0x41, 0x83, 0x95, 0xcd, 0xed, 0x1b, 0x9e, 0xd9, 0x3f, 0xa9, 0x1f,
  0x2f, 0x07, 0x7d, 0x88, 0x21, 0xf8, 0x0e, 0x0f, 0xb8, 0x23, 0xd1, 0x9b,
  0x1f, 0x07, 0x2c, 0x2a, 0xaa, 0xdd, 0x35, 0xbe, 0x87, 0x96, 0x6a, 0x20,
  0xe2, 0x41, 0x7d, 0xf1, 0x89, 0x77, 0x9f, 0xa8, 0x35, 0x3e, 0x4e, 0xd6,
  0x07, 0x19, 0xcf, 0x25, 0xb6, 0x16, 0x5c, 0x2b, 0x3d, 0x97, 0xa3, 0xe3,
  0x11, 0x86, 0x2d, 0xd9, 0x0e, 0x83, 0x86, 0x9b, 0xa8, 0x7d, 0xf5, 0x63,
  0xd6, 0xea, 0xd3, 0x54, 0x8a, 0xae, 0x59, 0x52, 0x4c, 0xc9, 0x28, 0x56,
  0x1a, 0xf6, 0xff, 0xff, 0x04, 0x00, 0x00, 0x00, 0x00, 0x01, 0x00, 0x00,
  0x0a, 0x14, 0x21, 0x60, 0xc8, 0xd4, 0x11, 0xec, 0x02, 0x0d, 0x26, 0x52,
  0x08, 0xee, 0x15, 0x1c, 0x2c, 0x22, 0xfd, 0x53, 0x05, 0xe5, 0xb9, 0xef,
  0xc2, 0xf8, 0xe9, 0xce, 0xed, 0x63, 0xe9, 0xe1, 0x04, 0x1a, 0x30, 0x35,
  0xf3, 0xf8, 0xfa, 0xfe, 0xfd, 0x3a, 0xa2, 0x4a, 0x05, 0x0c, 0xee, 0x0c,
  0x11, 0x00, 0xcc, 0xdc, 0x05, 0x02, 0x06, 0xd6, 0x27, 0xdf, 0xe5, 0xcb,
  0xda, 0xee, 0x58, 0x33, 0x3d, 0xd4, 0x0a, 0x2d, 0xb1, 0x34, 0xea, 0x32,
  0x36, 0xb7, 0xbe, 0x17, 0x01, 0x15, 0xec, 0xe4, 0xdc, 0xef, 0xdb, 0xca,
  0x4b, 0x06, 0xff, 0x26, 0xfe, 0xdf, 0xb0, 0xf4, 0x49, 0x61, 0x39, 0xfb,
  0x17, 0x14, 0xff, 0xfd, 0x14, 0x1b, 0x10, 0xbf, 0xc7, 0xda, 0xd5, 0x17,
  0x1a, 0x05, 0xc0, 0xe5, 0x1f, 0xf1, 0xf8, 0x11, 0x17, 0xc6, 0x09, 0x06,
  0x05, 0x20, 0xdd, 0xd9, 0xec, 0xf1, 0xe6, 0x1b, 0xe6, 0xd7, 0x04, 0x0b,
  0x22, 0xc2, 0xcd, 0x11, 0xa6, 0xf6, 0xff, 0x15, 0x1a, 0x15, 0xe1, 0x25,
  0x23, 0xac, 0xf4, 0x17, 0xe8, 0x0a, 0x2c, 0xea, 0xc4, 0x1c, 0xe2, 0xe3,
  0xc6, 0xf1, 0x32, 0xcc, 0xed, 0xe0, 0x12, 0x18, 0xcb, 0x0d, 0x21, 0x2c,
  0xc6, 0x14, 0x34, 0x23, 0xf0, 0x29, 0x2d, 0xe2, 0x07, 0xfe, 0xd4, 0x3a,
  0xf9, 0x15, 0x53, 0x0f, 0x5e, 0xef, 0x35, 0xd1, 0x34, 0xc5, 0xdf, 0xf2,
  0x37, 0x0b, 0x25, 0xcd, 0x22, 0xc6, 0x2c, 0x10, 0x27, 0xf1, 0x0d, 0x57,
  0x3e, 0x18, 0xda, 0xf1, 0xcb, 0x0e, 0x4f, 0x20, 0xf3, 0x11, 0x44, 0xcd,
  0x30, 0xe2, 0xe1, 0x01, 0x11, 0xf2, 0x1e, 0xfb, 0x81, 0xe5, 0x15, 0xc2,
  0xbe, 0xf8, 0xc1, 0x19, 0xed, 0x0b, 0x1e, 0xe3, 0xe8, 0x09, 0xe1, 0xed,
  0xe8, 0xf4, 0xcf, 0x08, 0xfa, 0xeb, 0x1a, 0x13, 0xde, 0x0e, 0xe2, 0xee,
  0x10, 0x33, 0x34, 0xeb, 0x26, 0xf7, 0xff, 0xff, 0x04, 0x00, 0x00, 0x00,
  0x00, 0x01, 0x00, 0x00, 0xe1, 0x38, 0xb7, 0xf0, 0x87, 0xcc, 0xce, 0xd4,
  0x13, 0xfc, 0x03, 0xe0, 0xfb, 0xa3, 0xd5, 0xb9, 0x33, 0x0d, 0xd6, 0xf5,
  0xdf, 0x2e, 0xfe, 0xf7, 0xb4, 0xb7, 0x01, 0xd2, 0x1b, 0xfd, 0x4b, 0x1a,
  0xee, 0x07, 0x49, 0x1f, 0x01, 0x26, 0x2d, 0xe8, 0xe8, 0xf3, 0x08, 0xe7,
  0x59, 0x10, 0x41, 0x1f, 0x01, 0x32, 0xb5, 0x18, 0xcd, 0xd5, 0xe1, 0xf7,
  0xea, 0xe2, 0x1c, 0x09, 0xe6, 0x4e, 0xbd, 0x32, 0xf9, 0x3f, 0xc8, 0x15,
  0x45, 0x57, 0x0f, 0x2d, 0xe1, 0xb7, 0x00, 0x42, 0x1c, 0xc4, 0x0f, 0xbe,
  0x1b, 0x5f, 0xe6, 0x04, 0x21, 0xd8, 0x6b, 0x06, 0xd5, 0xf4, 0x37, 0x18,
  0xda, 0x15, 0x05, 0xe2, 0xf2, 0xfb, 0x35, 0xfa, 0x47, 0xfa, 0x32, 0x11,
  0x18, 0x41, 0x02, 0xd8, 0xe8, 0xea, 0x0f, 0xe7, 0x02, 0xff, 0xf7, 0x0c,
  0x22, 0xe7, 0x03, 0xb8, 0x17, 0xf4, 0x33, 0x32, 0x18, 0x27, 0x51, 0xad,
  0xe4, 0x03, 0xc1, 0xe9, 0xd7, 0x0e, 0x6a, 0x27, 0x13, 0x0f, 0x1b, 0x26,
  0x48, 0x65, 0xf4, 0x0d, 0x18, 0x10, 0x2b, 0xd4, 0xe6, 0x2e, 0x0f, 0x64,
  0xe8, 0x2b, 0x0a, 0xf2, 0xeb, 0x39, 0x41, 0x31, 0x0e, 0xa8, 0xdd, 0x66,
  0x12, 0x2d, 0xb3, 0xf3, 0x2e, 0x08, 0x05, 0x27, 0x8e, 0x37, 0x40, 0xc4,
  0xfb, 0x39, 0xb8, 0x30, 0x78, 0x27, 0xc4, 0x15, 0x39, 0x0f, 0x49, 0x1e,
  0x1e, 0xed, 0x19, 0xbc, 0xae, 0x22, 0x24, 0x08, 0xe7, 0x1f, 0x0e, 0xfc,
  0xf3, 0x09, 0x0b, 0xea, 0xf6, 0xed, 0xec, 0xf7, 0x94, 0x08, 0x16, 0x52,
  0x17, 0xfa, 0x55, 0x22, 0x37, 0xb0, 0xee, 0xcc, 0xfd, 0x6f, 0xef, 0xf6,
  0x33, 0xbb, 0x09, 0xd1, 0x0a, 0x4f, 0xd0, 0xcc, 0x3d, 0x7f, 0xf8, 0x24,
  0x35, 0x1b, 0xf8, 0xfc, 0xd8, 0x34, 0xd6, 0x45, 0xcb, 0x25, 0x15, 0x61,
  0xf0, 0x6d, 0xde, 0x68, 0xfd, 0xea, 0x2d, 0x11, 0x32, 0xf8, 0xff, 0xff,
  0x04, 0x00, 0x00, 0x00, 0x00, 0x01, 0x00, 0x00, 0x27, 0xee, 0x0c, 0xf5,
  0x04, 0xc0, 0x2c, 0x42, 0xeb, 0x1f, 0xed, 0xfd, 0xd9, 0xc5, 0x01, 0x1f,
  0x1e, 0xf8, 0x27, 0x02, 0xf8, 0xe4, 0x1d, 0x11, 0xc7, 0x00, 0x07, 0xa8,
  0x2b, 0x31, 0x01, 0xe3, 0x06, 0xbd, 0x2f, 0x10, 0xf7, 0x12, 0xeb, 0xe1,
  0x28, 0xde, 0x1d, 0xf8, 0xe6, 0x27, 0x03, 0x0d, 0x24, 0x09, 0xec, 0xbb,
  0x29, 0x24, 0x3a, 0xd2, 0xf0, 0x4f, 0xe7, 0xfb, 0xf6, 0x19, 0xd4, 0x04,
  0xeb, 0x14, 0x1d, 0xca, 0x03, 0x21, 0xed, 0x0c, 0x24, 0xda, 0xfd, 0xf0,
  0xd3, 0xf1, 0x1c, 0xf9, 0x23, 0x2f, 0xf3, 0x13, 0x1d, 0x2f, 0xd3, 0x0e,
  0x34, 0x1e, 0x21, 0xe0, 0xf4, 0x20, 0x09, 0x48, 0xf1, 0x18, 0xe1, 0x23,
  0x2d, 0x42, 0xdf, 0x05, 0xe8, 0x01, 0xfe, 0xde, 0xee, 0xf3, 0x1b, 0x21,
  0x24, 0xfa, 0xfb, 0x2e, 0xe6, 0x06, 0xda, 0x0f, 0x01, 0x06, 0x29, 0xc6,
  0x5f, 0x02, 0xb5, 0x00, 0x19, 0x52, 0xd1, 0x1a, 0xd7, 0xfd, 0xf5, 0x02,
  0x18, 0x36, 0xd4, 0xf9, 0xfb, 0xf4, 0x02, 0x1a, 0xed, 0x10, 0x0d, 0x38,
  0x45, 0xa1, 0xfa, 0xec, 0x37, 0x1e, 0xde, 0x14, 0xfe, 0x15, 0x1c, 0x34,
  0xf1, 0x3a, 0xd8, 0x1b, 0xde, 0xf6, 0x00, 0x17, 0x23, 0xf2, 0xc8, 0xcf,
  0x32, 0x15, 0xfc, 0x04, 0x12, 0x47, 0x1e, 0xfa, 0xd3, 0x1a, 0x1a, 0xcd,
  0x01, 0x46, 0x13, 0xd2, 0xe0, 0x2f, 0x30, 0xd2, 0xef, 0xea, 0x00, 0x19,
  0x04, 0xf4, 0x01, 0x98, 0xda, 0xdd, 0x09, 0x41, 0x05, 0xef, 0x15, 0x06,
  0xd2, 0x35, 0x11, 0xde, 0xe8, 0x0f, 0xd9, 0xff, 0xea, 0xd8, 0xb8, 0x29,
  0x05, 0xf8, 0xe7, 0xe0, 0xa3, 0xf8, 0xca, 0x20, 0x0c, 0xb5, 0x2c, 0xd9,
  0xf7, 0x1b, 0x10, 0xd6, 0xce, 0xfe, 0xf2, 0xfc, 0x3a, 0xf1, 0x18, 0xf4,
  0x11, 0xb8, 0xea, 0x1c, 0x32, 0xf3, 0xf0, 0xed, 0x00, 0xfa, 0xfe, 0x81,
  0x3e, 0xf9, 0xff, 0xff, 0x04, 0x00, 0x00, 0x00, 0x00, 0x01, 0x00, 0x00,
  0xec, 0x43, 0x22, 0xaf, 0x18, 0xec, 0xf6, 0x07, 0x20, 0xe6, 0x1b, 0xfe,
  0xb1, 0xf7, 0x04, 0x3b, 0xe6, 0xd1, 0xbb, 0xf1, 0x2e, 0xfa, 0xf4, 0xf8,
  0xf0, 0x1f, 0xec, 0xb1, 0x4e, 0xae, 0x1f, 0xfc, 0xe8, 0xee, 0xd0, 0xf0,
  0xe9, 0x0d, 0x13, 0xae, 0xd3, 0xd0, 0x07, 0x35, 0x48, 0xe2, 0x3d, 0x3b,
  0x06, 0xc5, 0xf2, 0xe6, 0xc0, 0xd3, 0xf4, 0x0e, 0x4a, 0xe4, 0x7f, 0x08,
  0x27, 0x0d, 0x2d, 0x55, 0xe5, 0xba, 0xe2, 0x38, 0x03, 0x5a, 0x61, 0x1b,
  0xe5, 0xf4, 0xe3, 0xf3, 0xc6, 0xd9, 0xcb, 0x07, 0xfb, 0x53, 0x4b, 0x1e,
  0x3c, 0x2d, 0xfa, 0xa3, 0x06, 0xd1, 0x0e, 0xe0, 0xda, 0x0b, 0xcf, 0x1c,
  0x1b, 0x17, 0xb2, 0xca, 0xe0, 0x00, 0x19, 0xbf, 0xff, 0x0e, 0x5c, 0x21,
  0xd9, 0x6a, 0xd9, 0xe0, 0x03, 0xee, 0x1e, 0x47, 0x5f, 0x0b, 0xf9, 0x40,
  0xc1, 0xed, 0x56, 0xf1, 0xe0, 0xe4, 0xc7, 0x1a, 0x2b, 0xe1, 0x2d, 0x33,
  0xe3, 0xf2, 0x0e, 0xbe, 0xff, 0x11, 0xdd, 0xda, 0x3d, 0xe2, 0x0a, 0x42,
  0x19, 0xc6, 0xb3, 0xda, 0x1f, 0xf7, 0x25, 0x1b, 0x21, 0xc0, 0xcc, 0x39,
  0xb8, 0x23, 0xaa, 0x44, 0x70, 0x29, 0xdd, 0x09, 0xda, 0xdc, 0x0b, 0x08,
  0xe1, 0xa3, 0xe8, 0xed, 0xcd, 0xfd, 0x3f, 0x44, 0x36, 0x0d, 0xe8, 0x0e,
  0xed, 0x19, 0x3d, 0x18, 0x04, 0xdc, 0x2e, 0xfe, 0xe5, 0xe4, 0xf1, 0xc8,
  0xec, 0x0c, 0xe3, 0xfe, 0x0e, 0xa7, 0xe3, 0x25, 0x19, 0xe3, 0xef, 0x0d,
  0x02, 0xed, 0x68, 0xce, 0x47, 0x2a, 0x25, 0xee, 0x1a, 0xde, 0x15, 0x06,
  0xbc, 0xed, 0x20, 0xfd, 0x06, 0xd9, 0x1e, 0xe4, 0xf4, 0x01, 0xd7, 0x0d,
  0x1d, 0x03, 0xc2, 0x17, 0xb5, 0x27, 0x41, 0x19, 0x2d, 0xfb, 0x0a, 0x10,
  0xf5, 0x3a, 0x67, 0xf1, 0xf1, 0x08, 0xeb, 0x50, 0xee, 0xdd, 0x2b, 0x0c,
  0x03, 0xfb, 0x1d, 0x0d, 0xa8, 0xea, 0xff, 0xff, 0xac, 0xea, 0xff, 0xff,
  0x52, 0xfa, 0xff, 0xff, 0x04, 0x00, 0x00, 0x00, 0x40, 0x00, 0x00, 0x00,
  0x00, 0x00, 0x00, 0x00, 0x00, 0x00, 0x00, 0x00, 0x00, 0x00, 0x00, 0x00,
  0x00, 0x00, 0x00, 0x00, 0x00, 0x00, 0x00, 0x00, 0x00, 0x00, 0x00, 0x00,
  0x00, 0x00, 0x00, 0x00, 0x00, 0x00, 0x00, 0x00, 0x00, 0x00, 0x00, 0x00,
  0x00, 0x00, 0x00, 0x00, 0x00, 0x00, 0x00, 0x00, 0x00, 0x00, 0x00, 0x00,
  0x00, 0x00, 0x00, 0x00, 0x00, 0x00, 0x00, 0x00, 0x00, 0x00, 0x00, 0x00,
  0x00, 0x00, 0x00, 0x00, 0x9e, 0xfa, 0xff, 0xff, 0x04, 0x00, 0x00, 0x00,
  0x40, 0x00, 0x00, 0x00, 0x70, 0x98, 0x03, 0x00, 0x70, 0x98, 0x03, 0x00,
  0x70, 0x98, 0x03, 0x00, 0x70, 0x98, 0x03, 0x00, 0x70, 0x98, 0x03, 0x00,
  0x70, 0x98, 0x03, 0x00, 0x70, 0x98, 0x03, 0x00, 0x70, 0x98, 0x03, 0x00,
  0x70, 0x98, 0x03, 0x00, 0x70, 0x98, 0x03, 0x00, 0x70, 0x98, 0x03, 0x00,
  0x70, 0x98, 0x03, 0x00, 0x70, 0x98, 0x03, 0x00, 0x70, 0x98, 0x03, 0x00,
  0x70, 0x98, 0x03, 0x00, 0x70, 0x98, 0x03, 0x00, 0xea, 0xfa, 0xff, 0xff,
  0x04, 0x00, 0x00, 0x00, 0xb0, 0x00, 0x00, 0x00, 0x9b, 0x25, 0x99, 0x61,
  0xab, 0xe1, 0x38, 0xfb, 0x71, 0x32, 0x40, 0xb5, 0xe0, 0x40, 0xb0, 0x4b,
  0x53, 0xc8, 0x0d, 0x82, 0xbc, 0xe3, 0x64, 0x1e, 0x1a, 0xa3, 0x0b, 0x23,
  0x35, 0x40, 0xe1, 0x1e, 0x1b, 0xe1, 0x2c, 0x07, 0xea, 0x20, 0x2a, 0x24,
  0x2f, 0x56, 0xca, 0xc4, 0x97, 0x41, 0x24, 0x5a, 0x9c, 0xbd, 0x68, 0x43,
  0x51, 0x57, 0x28, 0x30, 0xe6, 0x97, 0xa9, 0x49, 0x91, 0x02, 0x45, 0x75,
  0xa8, 0x35, 0xd3, 0xb9, 0x3c, 0x2b, 0x72, 0xc0, 0x08, 0x4e, 0x08, 0x06,
  0x64, 0xb5, 0x1f, 0x5f, 0xb1, 0x05, 0x5f, 0xe1, 0xb3, 0x81, 0x83, 0x8a,
  0x4c, 0x8b, 0xca, 0xf3, 0xc3, 0x9f, 0x74, 0x75, 0x4b, 0x51, 0xd8, 0x4c,
  0x65, 0x9a, 0x8d, 0x27, 0x89, 0x46, 0xf1, 0x38, 0xc7, 0xaa, 0xc2, 0x4c,
  0xd2, 0x3f, 0x62, 0x0a, 0xd8, 0xfd, 0x8a, 0xb5, 0x47, 0x8b, 0x59, 0xcc,
  0xc9, 0xb4, 0xbc, 0x77, 0x44, 0x66, 0x7e, 0x0e, 0x9a, 0x6b, 0xf2, 0xf5,
  0xc6, 0x8a, 0x7a, 0x39, 0x28, 0x8e, 0xd2, 0xb7, 0x13, 0xd3, 0x76, 0xd2,
  0x9b, 0x3c, 0x76, 0xd7, 0xa4, 0xc0, 0x16, 0x09, 0xc6, 0xbe, 0xc4, 0xb4,
  0x54, 0xa8, 0x10, 0x5c, 0xff, 0x6c, 0x8d, 0x8d, 0xa8, 0x03, 0x01, 0x27,
  0x59, 0xe4, 0x53, 0x9f, 0xa6, 0xfb, 0xff, 0xff, 0x04, 0x00, 0x00, 0x00,
  0x80, 0x00, 0x00, 0x00, 0x00, 0x00, 0x00, 0x00, 0x00, 0x00, 0x00, 0x00,
  0x00, 0x00, 0x00, 0x00, 0x00, 0x00, 0x00, 0x00, 0x00, 0x00, 0x00, 0x00,
  0x00, 0x00, 0x00, 0x00, 0x00, 0x00, 0x00, 0x00, 0x00, 0x00, 0x00, 0x00,
  0x00, 0x00, 0x00, 0x00, 0x00, 0x00, 0x00, 0x00, 0x00, 0x00, 0x00, 0x00,
  0x00, 0x00, 0x00, 0x00, 0x00, 0x00, 0x00, 0x00, 0x00, 0x00, 0x00, 0x00,
  0x00, 0x00, 0x00, 0x00, 0x00, 0x00, 0x00, 0x00, 0x00, 0x00, 0x00, 0x00,
  0x00, 0x00, 0x00, 0x00, 0x00, 0x00, 0x00, 0x00, 0x00, 0x00, 0x00, 0x00,
  0x00, 0x00, 0x00, 0x00, 0x00, 0x00, 0x00, 0x00, 0x00, 0x00, 0x00, 0x00,
  0x00, 0x00, 0x00, 0x00, 0x00, 0x00, 0x00, 0x00, 0x00, 0x00, 0x00, 0x00,
  0x00, 0x00, 0x00, 0x00, 0x00, 0x00, 0x00, 0x00, 0x00, 0x00, 0x00, 0x00,
  0x00, 0x00, 0x00, 0x00, 0x00, 0x00, 0x00, 0x00, 0x00, 0x00, 0x00, 0x00,
  0x32, 0xfc, 0xff, 0xff, 0x04, 0x00, 0x00, 0x00, 0x20, 0x03, 0x00, 0x00,
  0xfe, 0x63, 0x7f, 0xce, 0x28, 0x33, 0xa1, 0xd9, 0x13, 0x52, 0x8e, 0x21,
  0x26, 0xf1, 0xef, 0xce, 0xf1, 0xa5, 0x64, 0x94, 0xa2, 0xf2, 0x01, 0x4a,
  0x4e, 0x81, 0x71, 0xb5, 0xd5, 0x1b, 0x33, 0xfe, 0x0d, 0x2d, 0xf0, 0xbd,
  0x82, 0x91, 0x71, 0x0f, 0x2f, 0xc2, 0x81, 0x2b, 0x73, 0x5e, 0x51, 0xfa,
  0x0f, 0x1f, 0x6f, 0x83, 0x13, 0xbe, 0xdd, 0xac, 0x28, 0x10, 0x0c, 0x7a,
  0x92, 0x96, 0x72, 0x56, 0x93, 0xfa, 0x96, 0xe2, 0x96, 0xdc, 0xc7, 0x3e,
  0xc9, 0x7f, 0xe5, 0x4e, 0x6a, 0xe2, 0x3d, 0x78, 0x67, 0xb2, 0xe1, 0x6f,
  0x5b, 0x4e, 0x25, 0x0b, 0xb4, 0xe4, 0x00, 0x08, 0x57, 0x7f, 0x5e, 0x29,
  0xca, 0x2d, 0xce, 0xe1, 0x25, 0x5d, 0x8f, 0x7f, 0x59, 0x40, 0x08, 0x6d,
  0xa6, 0x40, 0x2a, 0x95, 0xfd, 0x50, 0x82, 0xa0, 0xc5, 0x93, 0xce, 0x87,
  0x69, 0x8e, 0x60, 0x55, 0xc9, 0xef, 0xd9, 0x6f, 0x17, 0xc3, 0xa7, 0xa6,
  0x87, 0xc6, 0x2c, 0xa0, 0x3f, 0x27, 0x5a, 0x90, 0xe5, 0x7a, 0x81, 0x15,
  0x09, 0x3e, 0x26, 0x96, 0xd3, 0xc1, 0x44, 0x06, 0x42, 0x79, 0x2d, 0x14,
  0x4f, 0x40, 0x0c, 0xe8, 0x44, 0xbe, 0xa6, 0x09, 0x92, 0x9b, 0xd8, 0xe1,
  0xec, 0x7b, 0x0e, 0xdd, 0x29, 0x01, 0x7f, 0xd7, 0x1e, 0xe9, 0x1a, 0x70,
  0xd4, 0xda, 0xdf, 0xd9, 0xd3, 0x78, 0x54, 0x19, 0xa8, 0x35, 0x36, 0x1e,
  0x57, 0x22, 0x15, 0x81, 0x89, 0xcb, 0x3f, 0x48, 0x42, 0x74, 0x71, 0x9e,
  0x79, 0x39, 0xe5, 0x85, 0x7f, 0x1d, 0xbe, 0x39, 0x09, 0x13, 0x2f, 0x10,
  0x54, 0x74, 0xb4, 0x2f, 0x85, 0xfb, 0xfa, 0x89, 0x45, 0x23, 0x26, 0x1f,
  0x94, 0xcf, 0xe7, 0xc1, 0xdb, 0xbd, 0x0b, 0x23, 0x5c, 0x1e, 0x78, 0x74,
  0x0f, 0xf7, 0xf8, 0xd7, 0xd3, 0x05, 0x81, 0xa0, 0x41, 0x41, 0x0e, 0x88,
  0x76, 0x2b, 0xed, 0x89, 0xd4, 0x90, 0x91, 0x5c, 0x36, 0x49, 0x88, 0xb7,
  0x60, 0x1a, 0x10, 0xf5, 0xa6, 0x7f, 0x42, 0x9b, 0xc8, 0x16, 0xc0, 0x76,
  0xf2, 0x2a, 0x2d, 0xf1, 0xae, 0x56, 0xcf, 0xa8, 0xd8, 0x40, 0xbd, 0x72,
  0xbd, 0x81, 0xc1, 0xb3, 0x0e, 0x4a, 0x6c, 0x40, 0x45, 0xdc, 0xa5, 0x1e,
  0x44, 0x36, 0x16, 0x4a, 0x60, 0x37, 0x7e, 0x8c, 0xaa, 0x8e, 0x91, 0xc1,
  0xf9, 0x3f, 0xe2, 0xdc, 0xdc, 0xc0, 0xe9, 0xed, 0x4b, 0xec, 0x47, 0x7f,
  0xb1, 0x0e, 0x9b, 0x72, 0xaf, 0x8b, 0xcb, 0x5b, 0xf6, 0xe9, 0xf7, 0xc4,
  0x76, 0xc9, 0x28, 0x6b, 0x8c, 0xe8, 0x7f, 0xc2, 0x63, 0xa8, 0xef, 0x8f,
  0x10, 0xf9, 0x51, 0x95, 0xc9, 0x74, 0xb5, 0x25, 0xf7, 0x93, 0x3b, 0x3c,
  0x30, 0xd2, 0xe2, 0xc1, 0x4c, 0xa8, 0xbe, 0x91, 0xd9, 0x76, 0xf9, 0x81,
  0x50, 0x20, 0xcd, 0xc1, 0xd5, 0x31, 0xbc, 0xa0, 0xd5, 0x34, 0x60, 0xec,
  0xc3, 0xaa, 0x13, 0x7f, 0xc5, 0x7b, 0x27, 0xb3, 0xf7, 0xa2, 0x29, 0x6a,
  0xe3, 0x44, 0x84, 0x8c, 0x29, 0x3f, 0xc5, 0x29, 0xca, 0x7f, 0x34, 0x3f,
  0x51, 0x04, 0xc7, 0x6a, 0x1e, 0xb2, 0x72, 0x28, 0x2f, 0x92, 0x02, 0x05,
  0x3c, 0x5c, 0x0e, 0x9c, 0xf5, 0xd1, 0x61, 0x20, 0x91, 0x94, 0xf7, 0x43,
  0x2b, 0x9f, 0x5f, 0xa7, 0xb3, 0x81, 0x4b, 0x0a, 0xf2, 0xc1, 0x49, 0x8c,
  0x0f, 0xc7, 0x27, 0xad, 0x6f, 0x52, 0x0c, 0x4e, 0x08, 0xac, 0x1a, 0xec,
  0xfa, 0x06, 0x81, 0x4d, 0x61, 0xfd, 0xdd, 0xc6, 0xa4, 0xe5, 0x2d, 0xc1,
  0x8d, 0x5f, 0x6c, 0x30, 0x6f, 0x85, 0x1b, 0x5b, 0xa7, 0x7f, 0xe0, 0x1f,
  0x60, 0x5d, 0x22, 0xce, 0xb6, 0xf0, 0x91, 0x97, 0x25, 0x06, 0xa0, 0x3f,
  0xaa, 0xeb, 0xd4, 0xa7, 0x71, 0x7b, 0x14, 0x03, 0x25, 0x18, 0x3d, 0xf5,
  0xdd, 0x6c, 0x62, 0xd2, 0xa8, 0x6b, 0x9b, 0x28, 0x91, 0xb4, 0xaa, 0x03,
  0x24, 0x9f, 0x41, 0xf8, 0xba, 0xed, 0x8e, 0xa1, 0x7f, 0x33, 0x55, 0x81,
  0x68, 0x65, 0x2d, 0xcc, 0xf9, 0x00, 0x5d, 0x41, 0xe3, 0x26, 0x5d, 0xe8,
  0xfa, 0xf1, 0x3a, 0x5f, 0xe9, 0xff, 0x93, 0xac, 0x10, 0x04, 0xa4, 0x06,
  0xe5, 0x57, 0xaa, 0xa1, 0x5f, 0x91, 0x41, 0x11, 0x40, 0x18, 0x49, 0x16,
  0xe8, 0x96, 0x67, 0x81, 0x6a, 0x06, 0x41, 0xe5, 0x48, 0x1b, 0x47, 0x71,
  0xdf, 0x46, 0x57, 0x7f, 0xc5, 0x73, 0x06, 0xe4, 0xf9, 0xae, 0xf4, 0x4a,
  0x27, 0x87, 0xbf, 0x3a, 0x4f, 0x33, 0x85, 0x2e, 0xf3, 0x63, 0x2a, 0x23,
  0xed, 0x2a, 0x5a, 0x39, 0x11, 0xee, 0x31, 0xcf, 0x82, 0x4b, 0x11, 0x74,
  0xfc, 0x27, 0x59, 0x58, 0x49, 0x7f, 0x18, 0x15, 0x07, 0xf1, 0x6b, 0x43,
  0x1b, 0xa6, 0x44, 0xc6, 0x46, 0x81, 0x35, 0xf2, 0x56, 0x46, 0xdf, 0x48,
  0xba, 0x90, 0x2c, 0x77, 0x41, 0xea, 0x8a, 0xa2, 0x83, 0x69, 0x92, 0xf2,
  0x6f, 0x85, 0x65, 0x49, 0x2b, 0x65, 0xda, 0x5f, 0x00, 0x3c, 0x7f, 0x6c,
  0x33, 0xfd, 0xf5, 0xbf, 0xae, 0xff, 0xfe, 0x66, 0xd3, 0x5a, 0x0a, 0xc0,
  0x9b, 0x00, 0x90, 0xff, 0xbd, 0x7e, 0xae, 0xa0, 0x03, 0xae, 0x85, 0x77,
  0x4d, 0x02, 0x94, 0xf4, 0x17, 0xb0, 0xf8, 0x81, 0x76, 0xd1, 0x83, 0x71,
  0x1f, 0x0a, 0x2b, 0x08, 0x43, 0x6c, 0xfb, 0x59, 0xf5, 0xb5, 0xa9, 0x34,
  0xcb, 0x79, 0x9b, 0x34, 0xfd, 0xed, 0xe3, 0xe5, 0xa2, 0xf8, 0xd7, 0xeb,
  0x8b, 0x81, 0x40, 0x21, 0x77, 0xf9, 0x7a, 0x8f, 0xa6, 0x48, 0x14, 0x6b,
  0xff, 0x81, 0x3c, 0xc3, 0x3e, 0xa6, 0xb5, 0xc5, 0x8b, 0xde, 0xec, 0x42,
  0x01, 0x6c, 0x5d, 0x44, 0xe8, 0x29, 0x5f, 0xbc, 0xee, 0xbb, 0x1a, 0xa2,
  0xc7, 0x0b, 0x75, 0xd2, 0x72, 0xac, 0x95, 0xdb, 0x6b, 0x35, 0xb5, 0xb6,
  0xea, 0xca, 0x57, 0x81, 0x14, 0x7e, 0xd5, 0xe0, 0x83, 0xff, 0xdb, 0x5e,
  0xfc, 0xc2, 0x11, 0xce, 0xf5, 0xfd, 0x0f, 0x75, 0x1f, 0x7f, 0x4f, 0x85,
  0x50, 0x14, 0xde, 0x56, 0x30, 0x10, 0x8f, 0x52, 0x5e, 0xff, 0xff, 0xff,
  0x04, 0x00, 0x00, 0x00, 0x0c, 0x00, 0x00, 0x00, 0x01, 0x00, 0x00, 0x00,
  0x46, 0x00, 0x00, 0x00, 0x20, 0x00, 0x00, 0x00, 0xd4, 0xef, 0xff, 0xff,
  0xd8, 0xef, 0xff, 0xff, 0x0f, 0x00, 0x00, 0x00, 0x4d, 0x4c, 0x49, 0x52,
  0x20, 0x43, 0x6f, 0x6e, 0x76, 0x65, 0x72, 0x74, 0x65, 0x64, 0x2e, 0x00,
  0x01, 0x00, 0x00, 0x00, 0x14, 0x00, 0x00, 0x00, 0x00, 0x00, 0x0e, 0x00,
  0x18, 0x00, 0x14, 0x00, 0x10, 0x00, 0x0c, 0x00, 0x08, 0x00, 0x04, 0x00,
  0x0e, 0x00, 0x00, 0x00, 0x14, 0x00, 0x00, 0x00, 0x1c, 0x00, 0x00, 0x00,
  0x10, 0x02, 0x00, 0x00, 0x14, 0x02, 0x00, 0x00, 0x18, 0x02, 0x00, 0x00,
  0x04, 0x00, 0x00, 0x00, 0x6d, 0x61, 0x69, 0x6e, 0x00, 0x00, 0x00, 0x00,
  0x05, 0x00, 0x00, 0x00, 0xac, 0x01, 0x00, 0x00, 0x74, 0x01, 0x00, 0x00,
  0xb0, 0x00, 0x00, 0x00, 0x50, 0x00, 0x00, 0x00, 0x04, 0x00, 0x00, 0x00,
  0xc6, 0xff, 0xff, 0xff, 0x1c, 0x00, 0x00, 0x00, 0x00, 0x00, 0x00, 0x09,
  0x1c, 0x00, 0x00, 0x00, 0x20, 0x00, 0x00, 0x00, 0x04, 0x00, 0x00, 0x00,
  0x00, 0x00, 0x06, 0x00, 0x08, 0x00, 0x04, 0x00, 0x06, 0x00, 0x00, 0x00,
  0x00, 0x00, 0x80, 0x3f, 0x01, 0x00, 0x00, 0x00, 0x1c, 0x00, 0x00, 0x00,
  0x01, 0x00, 0x00, 0x00, 0x1b, 0x00, 0x00, 0x00, 0x00, 0x00, 0x0e, 0x00,
  0x1a, 0x00, 0x14, 0x00, 0x10, 0x00, 0x0c, 0x00, 0x0b, 0x00, 0x04, 0x00,
  0x0e, 0x00, 0x00, 0x00, 0x20, 0x00, 0x00, 0x00, 0x00, 0x00, 0x00, 0x08,
  0x20, 0x00, 0x00, 0x00, 0x24, 0x00, 0x00, 0x00, 0x03, 0x00, 0x00, 0x00,
  0x00, 0x00, 0x0a, 0x00, 0x08, 0x00, 0x00, 0x00, 0x00, 0x00, 0x07, 0x00,
  0x0a, 0x00, 0x00, 0x00, 0x00, 0x00, 0x00, 0x01, 0x01, 0x00, 0x00, 0x00,
  0x1b, 0x00, 0x00, 0x00, 0x03, 0x00, 0x00, 0x00, 0x1a, 0x00, 0x00, 0x00,
  0x04, 0x00, 0x00, 0x00, 0xff, 0xff, 0xff, 0xff, 0x00, 0x00, 0x16, 0x00,
  0x1c, 0x00, 0x18, 0x00, 0x14, 0x00, 0x10, 0x00, 0x0f, 0x00, 0x08, 0x00,
  0x00, 0x00, 0x00, 0x00, 0x00, 0x00, 0x04, 0x00, 0x16, 0x00, 0x00, 0x00,
  0x18, 0x00, 0x00, 0x00, 0x34, 0x00, 0x00, 0x00, 0x00, 0x00, 0x00, 0x47,
  0x38, 0x00, 0x00, 0x00, 0x3c, 0x00, 0x00, 0x00, 0x02, 0x00, 0x00, 0x00,
  0x05, 0x00, 0x00, 0x00, 0x15, 0x00, 0x00, 0x00, 0x16, 0x00, 0x00, 0x00,
  0x17, 0x00, 0x00, 0x00, 0x18, 0x00, 0x00, 0x00, 0x19, 0x00, 0x00, 0x00,
  0x08, 0x00, 0x0c, 0x00, 0x0b, 0x00, 0x04, 0x00, 0x08, 0x00, 0x00, 0x00,
  0x00, 0x00, 0x20, 0x41, 0x00, 0x00, 0x00, 0x04, 0x01, 0x00, 0x00, 0x00,
  0x1a, 0x00, 0x00, 0x00, 0x18, 0x00, 0x00, 0x00, 0x12, 0x00, 0x00, 0x00,
  0x10, 0x00, 0x00, 0x00, 0x0f, 0x00, 0x00, 0x00, 0x0e, 0x00, 0x00, 0x00,
  0x0d, 0x00, 0x00, 0x00, 0x0c, 0x00, 0x00, 0x00, 0x0b, 0x00, 0x00, 0x00,
  0x0a, 0x00, 0x00, 0x00, 0x09, 0x00, 0x00, 0x00, 0xff, 0xff, 0xff, 0xff,
  0xff, 0xff, 0xff, 0xff, 0xff, 0xff, 0xff, 0xff, 0x06, 0x00, 0x00, 0x00,
  0x05, 0x00, 0x00, 0x00, 0x07, 0x00, 0x00, 0x00, 0x08, 0x00, 0x00, 0x00,
  0xff, 0xff, 0xff, 0xff, 0xff, 0xff, 0xff, 0xff, 0x13, 0x00, 0x00, 0x00,
  0x14, 0x00, 0x00, 0x00, 0xff, 0xff, 0xff, 0xff, 0xff, 0xff, 0xff, 0xff,
  0xff, 0xff, 0xff, 0xff, 0xff, 0xff, 0xff, 0xff, 0x00, 0x00, 0x0a, 0x00,
  0x10, 0x00, 0x0c, 0x00, 0x08, 0x00, 0x04, 0x00, 0x0a, 0x00, 0x00, 0x00,
  0x0c, 0x00, 0x00, 0x00, 0x10, 0x00, 0x00, 0x00, 0x01, 0x00, 0x00, 0x00,
  0x01, 0x00, 0x00, 0x00, 0x12, 0x00, 0x00, 0x00, 0x02, 0x00, 0x00, 0x00,
  0x11, 0x00, 0x00, 0x00, 0x01, 0x00, 0x00, 0x00, 0x00, 0x00, 0x0e, 0x00,
  0x14, 0x00, 0x00, 0x00, 0x10, 0x00, 0x0c, 0x00, 0x0b, 0x00, 0x04, 0x00,
  0x0e, 0x00, 0x00, 0x00, 0x1c, 0x00, 0x00, 0x00, 0x00, 0x00, 0x00, 0x01,
  0x24, 0x00, 0x00, 0x00, 0x28, 0x00, 0x00, 0x00, 0x0c, 0x00, 0x10, 0x00,
  0x00, 0x00, 0x0c, 0x00, 0x08, 0x00, 0x07, 0x00, 0x0c, 0x00, 0x00, 0x00,
  0x00, 0x00, 0x00, 0x01, 0x07, 0x00, 0x00, 0x00, 0x07, 0x00, 0x00, 0x00,
  0x01, 0x00, 0x00, 0x00, 0x11, 0x00, 0x00, 0x00, 0x03, 0x00, 0x00, 0x00,
  0x00, 0x00, 0x00, 0x00, 0x02, 0x00, 0x00, 0x00, 0x03, 0x00, 0x00, 0x00,
  0x01, 0x00, 0x00, 0x00, 0x1c, 0x00, 0x00, 0x00, 0x01, 0x00, 0x00, 0x00,
  0x00, 0x00, 0x00, 0x00, 0x1d, 0x00, 0x00, 0x00, 0x10, 0x0e, 0x00, 0x00,
  0xa8, 0x0d, 0x00, 0x00, 0xb4, 0x0b, 0x00, 0x00, 0xd0, 0x09, 0x00, 0x00,
  0x5c, 0x09, 0x00, 0x00, 0x00, 0x09, 0x00, 0x00, 0xa4, 0x08, 0x00, 0x00,
  0x40, 0x08, 0x00, 0x00, 0xdc, 0x07, 0x00, 0x00, 0x78, 0x07, 0x00, 0x00,
  0x14, 0x07, 0x00, 0x00, 0xb0, 0x06, 0x00, 0x00, 0x4c, 0x06, 0x00, 0x00,
  0xe8, 0x05, 0x00, 0x00, 0x84, 0x05, 0x00, 0x00, 0x20, 0x05, 0x00, 0x00,
  0xbc, 0x04, 0x00, 0x00, 0x38, 0x04, 0x00, 0x00, 0xcc, 0x03, 0x00, 0x00,
  0x6c, 0x03, 0x00, 0x00, 0xf0, 0x02, 0x00, 0x00, 0xb4, 0x02, 0x00, 0x00,
  0x5c, 0x02, 0x00, 0x00, 0x20, 0x02, 0x00, 0x00, 0xe0, 0x01, 0x00, 0x00,
  0x74, 0x01, 0x00, 0x00, 0xe4, 0x00, 0x00, 0x00, 0x78, 0x00, 0x00, 0x00,
  0x04, 0x00, 0x00, 0x00, 0x7a, 0xf2, 0xff, 0xff, 0x00, 0x00, 0x00, 0x01,
  0x14, 0x00, 0x00, 0x00, 0x34, 0x00, 0x00, 0x00, 0x18, 0x00, 0x00, 0x00,
  0x00, 0x00, 0x00, 0x09, 0x48, 0x00, 0x00, 0x00, 0x64, 0xf2, 0xff, 0xff,
  0x08, 0x00, 0x00, 0x00, 0x14, 0x00, 0x00, 0x00, 0x01, 0x00, 0x00, 0x00,
  0x80, 0xff, 0xff, 0xff, 0xff, 0xff, 0xff, 0xff, 0x00, 0x00, 0x00, 0x00,
  0x01, 0x00, 0x00, 0x00, 0x00, 0x00, 0x80, 0x3b, 0x19, 0x00, 0x00, 0x00,
  0x53, 0x74, 0x61, 0x74, 0x65, 0x66, 0x75, 0x6c, 0x50, 0x61, 0x72, 0x74,
  0x69, 0x74, 0x69, 0x6f, 0x6e, 0x65, 0x64, 0x43, 0x61, 0x6c, 0x6c, 0x3a,
  0x30, 0x00, 0x00, 0x00, 0x03, 0x00, 0x00, 0x00, 0x01, 0x00, 0x00, 0x00,
  0x46, 0x00, 0x00, 0x00, 0x0b, 0x00, 0x00, 0x00, 0xea, 0xf2, 0xff, 0xff,
  0x00, 0x00, 0x00, 0x01, 0x14, 0x00, 0x00, 0x00, 0x30, 0x00, 0x00, 0x00,
  0x17, 0x00, 0x00, 0x00, 0x00, 0x00, 0x00, 0x09, 0x40, 0x00, 0x00, 0x00,
  0xd4, 0xf2, 0xff, 0xff, 0x08, 0x00, 0x00, 0x00, 0x10, 0x00, 0x00, 0x00,
  0x01, 0x00, 0x00, 0x00, 0xee, 0xff, 0xff, 0xff, 0xff, 0xff, 0xff, 0xff,
  0x01, 0x00, 0x00, 0x00, 0x01, 0x15, 0xdf, 0x3a, 0x15, 0x00, 0x00, 0x00,
  0x6d, 0x6f, 0x64, 0x65, 0x6c, 0x2f, 0x64, 0x65, 0x6e, 0x73, 0x65, 0x2f,
  0x54, 0x65, 0x6e, 0x73, 0x6f, 0x72, 0x64, 0x6f, 0x74, 0x00, 0x00, 0x00,
  0x03, 0x00, 0x00, 0x00, 0x01, 0x00, 0x00, 0x00, 0x46, 0x00, 0x00, 0x00,
  0x0b, 0x00, 0x00, 0x00, 0x52, 0xf3, 0xff, 0xff, 0x00, 0x00, 0x00, 0x01,
  0x14, 0x00, 0x00, 0x00, 0x30, 0x00, 0x00, 0x00, 0x16, 0x00, 0x00, 0x00,
  0x00, 0x00, 0x00, 0x09, 0x4c, 0x00, 0x00, 0x00, 0x3c, 0xf3, 0xff, 0xff,
  0x08, 0x00, 0x00, 0x00, 0x10, 0x00, 0x00, 0x00, 0x01, 0x00, 0x00, 0x00,
  0xff, 0xff, 0xff, 0xff, 0xff, 0xff, 0xff, 0xff, 0x01, 0x00, 0x00, 0x00,
  0x40, 0x30, 0xec, 0x3a, 0x20, 0x00, 0x00, 0x00, 0x74, 0x66, 0x6c, 0x2e,
  0x75, 0x6e, 0x69, 0x64, 0x69, 0x72, 0x65, 0x63, 0x74, 0x69, 0x6f, 0x6e,
  0x61, 0x6c, 0x5f, 0x73, 0x65, 0x71, 0x75, 0x65, 0x6e, 0x63, 0x65, 0x5f,
  0x6c, 0x73, 0x74, 0x6d, 0x00, 0x00, 0x00, 0x00, 0x03, 0x00, 0x00, 0x00,
  0x01, 0x00, 0x00, 0x00, 0x46, 0x00, 0x00, 0x00, 0x10, 0x00, 0x00, 0x00,
  0x00, 0x00, 0x16, 0x00, 0x18, 0x00, 0x14, 0x00, 0x13, 0x00, 0x00, 0x00,
  0x0c, 0x00, 0x08, 0x00, 0x00, 0x00, 0x00, 0x00, 0x00, 0x00, 0x07, 0x00,
  0x16, 0x00, 0x00, 0x00, 0x00, 0x00, 0x00, 0x01, 0x10, 0x00, 0x00, 0x00,
  0x2c, 0x00, 0x00, 0x00, 0x00, 0x00, 0x00, 0x09, 0x4c, 0x00, 0x00, 0x00,
  0xc4, 0xf3, 0xff, 0xff, 0x08, 0x00, 0x00, 0x00, 0x10, 0x00, 0x00, 0x00,
  0x01, 0x00, 0x00, 0x00, 0xff, 0xff, 0xff, 0xff, 0xff, 0xff, 0xff, 0xff,
  0x01, 0x00, 0x00, 0x00, 0x40, 0x30, 0xec, 0x3a, 0x23, 0x00, 0x00, 0x00,
  0x65, 0x66, 0x66, 0x65, 0x63, 0x74, 0x69, 0x76, 0x65, 0x5f, 0x68, 0x69,
  0x64, 0x64, 0x65, 0x6e, 0x5f, 0x73, 0x63, 0x61, 0x6c, 0x65, 0x5f, 0x69,
  0x6e, 0x74, 0x65, 0x72, 0x6d, 0x65, 0x64, 0x69, 0x61, 0x74, 0x65, 0x00,
  0x01, 0x00, 0x00, 0x00, 0x00, 0x00, 0x00, 0x00, 0x4e, 0xff, 0xff, 0xff,
  0x00, 0x00, 0x00, 0x01, 0x08, 0x00, 0x00, 0x00, 0x28, 0x00, 0x00, 0x00,
  0x1c, 0x00, 0x00, 0x00, 0x69, 0x6e, 0x70, 0x75, 0x74, 0x5f, 0x74, 0x6f,
  0x5f, 0x6f, 0x75, 0x74, 0x70, 0x75, 0x74, 0x5f, 0x69, 0x6e, 0x74, 0x65,
  0x72, 0x6d, 0x65, 0x64, 0x69, 0x61, 0x74, 0x65, 0x00, 0x00, 0x00, 0x00,
  0x01, 0x00, 0x00, 0x00, 0x00, 0x00, 0x00, 0x00, 0x8a, 0xff, 0xff, 0xff,
  0x00, 0x00, 0x00, 0x01, 0x08, 0x00, 0x00, 0x00, 0x24, 0x00, 0x00, 0x00,
  0x1a, 0x00, 0x00, 0x00, 0x69, 0x6e, 0x70, 0x75, 0x74, 0x5f, 0x74, 0x6f,
  0x5f, 0x63, 0x65, 0x6c, 0x6c, 0x5f, 0x69, 0x6e, 0x74, 0x65, 0x72, 0x6d,
  0x65, 0x64, 0x69, 0x61, 0x74, 0x65, 0x00, 0x00, 0x01, 0x00, 0x00, 0x00,
  0x00, 0x00, 0x00, 0x00, 0xc2, 0xff, 0xff, 0xff, 0x00, 0x00, 0x00, 0x01,
  0x08, 0x00, 0x00, 0x00, 0x28, 0x00, 0x00, 0x00, 0x1c, 0x00, 0x00, 0x00,
  0x69, 0x6e, 0x70, 0x75, 0x74, 0x5f, 0x74, 0x6f, 0x5f, 0x66, 0x6f, 0x72,
  0x67, 0x65, 0x74, 0x5f, 0x69, 0x6e, 0x74, 0x65, 0x72, 0x6d, 0x65, 0x64,
  0x69, 0x61, 0x74, 0x65, 0x00, 0x00, 0x00, 0x00, 0x01, 0x00, 0x00, 0x00,
  0x00, 0x00, 0x00, 0x00, 0x00, 0x00, 0x16, 0x00, 0x10, 0x00, 0x0c, 0x00,
  0x00, 0x00, 0x00, 0x00, 0x08, 0x00, 0x00, 0x00, 0x00, 0x00, 0x00, 0x00,
  0x00, 0x00, 0x07, 0x00, 0x16, 0x00, 0x00, 0x00, 0x00, 0x00, 0x00, 0x01,
  0x08, 0x00, 0x00, 0x00, 0x24, 0x00, 0x00, 0x00, 0x1b, 0x00, 0x00, 0x00,
  0x69, 0x6e, 0x70, 0x75, 0x74, 0x5f, 0x74, 0x6f, 0x5f, 0x69, 0x6e, 0x70,
  0x75, 0x74, 0x5f, 0x69, 0x6e, 0x74, 0x65, 0x72, 0x6d, 0x65, 0x64, 0x69,
  0x61, 0x74, 0x65, 0x00, 0x01, 0x00, 0x00, 0x00, 0x00, 0x00, 0x00, 0x00,
  0x9e, 0xff, 0xff, 0xff, 0x00, 0x00, 0x01, 0x01, 0x10, 0x00, 0x00, 0x00,
  0x30, 0x00, 0x00, 0x00, 0x00, 0x00, 0x00, 0x07, 0x40, 0x00, 0x00, 0x00,
  0x2c, 0xf5, 0xff, 0xff, 0x08, 0x00, 0x00, 0x00, 0x14, 0x00, 0x00, 0x00,
  0x01, 0x00, 0x00, 0x00, 0x00, 0x00, 0x00, 0x00, 0x00, 0x00, 0x00, 0x00,
  0x00, 0x00, 0x00, 0x00, 0x01, 0x00, 0x00, 0x00, 0x00, 0x00, 0x80, 0x37,
  0x12, 0x00, 0x00, 0x00, 0x74, 0x66, 0x6c, 0x2e, 0x70, 0x73, 0x65, 0x75,
  0x64, 0x6f, 0x5f, 0x71, 0x63, 0x6f, 0x6e, 0x73, 0x74, 0x31, 0x00, 0x00,
  0x02, 0x00, 0x00, 0x00, 0x01, 0x00, 0x00, 0x00, 0x10, 0x00, 0x00, 0x00,
  0x00, 0x00, 0x16, 0x00, 0x18, 0x00, 0x14, 0x00, 0x13, 0x00, 0x00, 0x00,
  0x0c, 0x00, 0x08, 0x00, 0x07, 0x00, 0x00, 0x00, 0x00, 0x00, 0x06, 0x00,
  0x16, 0x00, 0x00, 0x00, 0x00, 0x00, 0x01, 0x01, 0x10, 0x00, 0x00, 0x00,
  0x2c, 0x00, 0x00, 0x00, 0x00, 0x00, 0x00, 0x09, 0x3c, 0x00, 0x00, 0x00,
  0xa4, 0xf5, 0xff, 0xff, 0x08, 0x00, 0x00, 0x00, 0x10, 0x00, 0x00, 0x00,
  0x01, 0x00, 0x00, 0x00, 0xff, 0xff, 0xff, 0xff, 0xff, 0xff, 0xff, 0xff,
  0x01, 0x00, 0x00, 0x00, 0x40, 0x30, 0xec, 0x3a, 0x11, 0x00, 0x00, 0x00,
  0x74, 0x66, 0x6c, 0x2e, 0x70, 0x73, 0x65, 0x75, 0x64, 0x6f, 0x5f, 0x71,
  0x63, 0x6f, 0x6e, 0x73, 0x74, 0x00, 0x00, 0x00, 0x02, 0x00, 0x00, 0x00,
  0x01, 0x00, 0x00, 0x00, 0x10, 0x00, 0x00, 0x00, 0x1a, 0xf6, 0xff, 0xff,
  0x00, 0x00, 0x00, 0x01, 0x14, 0x00, 0x00, 0x00, 0x30, 0x00, 0x00, 0x00,
  0x13, 0x00, 0x00, 0x00, 0x00, 0x00, 0x00, 0x09, 0x40, 0x00, 0x00, 0x00,
  0x04, 0xf6, 0xff, 0xff, 0x08, 0x00, 0x00, 0x00, 0x10, 0x00, 0x00, 0x00,
  0x01, 0x00, 0x00, 0x00, 0x80, 0xff, 0xff, 0xff, 0xff, 0xff, 0xff, 0xff,
  0x01, 0x00, 0x00, 0x00, 0x2b, 0x72, 0x0d, 0x3b, 0x15, 0x00, 0x00, 0x00,
  0x6d, 0x6f, 0x64, 0x65, 0x6c, 0x2f, 0x72, 0x65, 0x73, 0x68, 0x61, 0x70,
  0x65, 0x2f, 0x52, 0x65, 0x73, 0x68, 0x61, 0x70, 0x65, 0x00, 0x00, 0x00,
  0x03, 0x00, 0x00, 0x00, 0x01, 0x00, 0x00, 0x00, 0x46, 0x00, 0x00, 0x00,
  0x20, 0x00, 0x00, 0x00, 0x82, 0xf6, 0xff, 0xff, 0x00, 0x00, 0x00, 0x01,
  0x14, 0x00, 0x00, 0x00, 0x34, 0x00, 0x00, 0x00, 0x12, 0x00, 0x00, 0x00,
  0x00, 0x00, 0x00, 0x09, 0x54, 0x00, 0x00, 0x00, 0x6c, 0xf6, 0xff, 0xff,
  0x08, 0x00, 0x00, 0x00, 0x14, 0x00, 0x00, 0x00, 0x01, 0x00, 0x00, 0x00,
  0x80, 0xff, 0xff, 0xff, 0xff, 0xff, 0xff, 0xff, 0x00, 0x00, 0x00, 0x00,
  0x01, 0x00, 0x00, 0x00, 0x2b, 0x72, 0x0d, 0x3b, 0x26, 0x00, 0x00, 0x00,
  0x6d, 0x6f, 0x64, 0x65, 0x6c, 0x2f, 0x63, 0x6f, 0x6e, 0x76, 0x32, 0x64,
  0x2f, 0x52, 0x65, 0x6c, 0x75, 0x3b, 0x6d, 0x6f, 0x64, 0x65, 0x6c, 0x2f,
  0x63, 0x6f, 0x6e, 0x76, 0x32, 0x64, 0x2f, 0x43, 0x6f, 0x6e, 0x76, 0x32,
  0x44, 0x31, 0x00, 0x00, 0x04, 0x00, 0x00, 0x00, 0x01, 0x00, 0x00, 0x00,
  0x05, 0x00, 0x00, 0x00, 0x0e, 0x00, 0x00, 0x00, 0x20, 0x00, 0x00, 0x00,
  0x02, 0xf7, 0xff, 0xff, 0x00, 0x00, 0x00, 0x01, 0x14, 0x00, 0x00, 0x00,
  0x34, 0x00, 0x00, 0x00, 0x11, 0x00, 0x00, 0x00, 0x00, 0x00, 0x00, 0x09,
  0x3c, 0x00, 0x00, 0x00, 0xec, 0xf6, 0xff, 0xff, 0x08, 0x00, 0x00, 0x00,
  0x14, 0x00, 0x00, 0x00, 0x01, 0x00, 0x00, 0x00, 0x00, 0x00, 0x00, 0x00,
  0x00, 0x00, 0x00, 0x00, 0x00, 0x00, 0x00, 0x00, 0x01, 0x00, 0x00, 0x00,
  0xbf, 0xf7, 0x00, 0x3b, 0x0f, 0x00, 0x00, 0x00, 0x61, 0x72, 0x69, 0x74,
  0x68, 0x2e, 0x63, 0x6f, 0x6e, 0x73, 0x74, 0x61, 0x6e, 0x74, 0x36, 0x00,
  0x02, 0x00, 0x00, 0x00, 0x10, 0x00, 0x00, 0x00, 0x20, 0x00, 0x00, 0x00,
  0x62, 0xf7, 0xff, 0xff, 0x00, 0x00, 0x00, 0x01, 0x14, 0x00, 0x00, 0x00,
  0x34, 0x00, 0x00, 0x00, 0x10, 0x00, 0x00, 0x00, 0x00, 0x00, 0x00, 0x09,
  0x3c, 0x00, 0x00, 0x00, 0x4c, 0xf7, 0xff, 0xff, 0x08, 0x00, 0x00, 0x00,
  0x14, 0x00, 0x00, 0x00, 0x01, 0x00, 0x00, 0x00, 0x00, 0x00, 0x00, 0x00,
  0x00, 0x00, 0x00, 0x00, 0x00, 0x00, 0x00, 0x00, 0x01, 0x00, 0x00, 0x00,
  0x71, 0xdd, 0x00, 0x3b, 0x0f, 0x00, 0x00, 0x00, 0x61, 0x72, 0x69, 0x74,
  0x68, 0x2e, 0x63, 0x6f, 0x6e, 0x73, 0x74, 0x61, 0x6e, 0x74, 0x37, 0x00,
  0x02, 0x00, 0x00, 0x00, 0x10, 0x00, 0x00, 0x00, 0x20, 0x00, 0x00, 0x00,
  0xc2, 0xf7, 0xff, 0xff, 0x00, 0x00, 0x00, 0x01, 0x14, 0x00, 0x00, 0x00,
  0x34, 0x00, 0x00, 0x00, 0x0f, 0x00, 0x00, 0x00, 0x00, 0x00, 0x00, 0x09,
  0x3c, 0x00, 0x00, 0x00, 0xac, 0xf7, 0xff, 0xff, 0x08, 0x00, 0x00, 0x00,
  0x14, 0x00, 0x00, 0x00, 0x01, 0x00, 0x00, 0x00, 0x00, 0x00, 0x00, 0x00,
  0x00, 0x00, 0x00, 0x00, 0x00, 0x00, 0x00, 0x00, 0x01, 0x00, 0x00, 0x00,
  0xb5, 0xff, 0x00, 0x3b, 0x0f, 0x00, 0x00, 0x00, 0x61, 0x72, 0x69, 0x74,
  0x68, 0x2e, 0x63, 0x6f, 0x6e, 0x73, 0x74, 0x61, 0x6e, 0x74, 0x38, 0x00,
  0x02, 0x00, 0x00, 0x00, 0x10, 0x00, 0x00, 0x00, 0x20, 0x00, 0x00, 0x00,
  0x22, 0xf8, 0xff, 0xff, 0x00, 0x00, 0x00, 0x01, 0x14, 0x00, 0x00, 0x00,
  0x34, 0x00, 0x00, 0x00, 0x0e, 0x00, 0x00, 0x00, 0x00, 0x00, 0x00, 0x09,
  0x3c, 0x00, 0x00, 0x00, 0x0c, 0xf8, 0xff, 0xff, 0x08, 0x00, 0x00, 0x00,
  0x14, 0x00, 0x00, 0x00, 0x01, 0x00, 0x00, 0x00, 0x00, 0x00, 0x00, 0x00,
  0x00, 0x00, 0x00, 0x00, 0x00, 0x00, 0x00, 0x00, 0x01, 0x00, 0x00, 0x00,
  0xe6, 0xbf, 0x00, 0x3b, 0x0f, 0x00, 0x00, 0x00, 0x61, 0x72, 0x69, 0x74,
  0x68, 0x2e, 0x63, 0x6f, 0x6e, 0x73, 0x74, 0x61, 0x6e, 0x74, 0x39, 0x00,
  0x02, 0x00, 0x00, 0x00, 0x10, 0x00, 0x00, 0x00, 0x20, 0x00, 0x00, 0x00,
  0x82, 0xf8, 0xff, 0xff, 0x00, 0x00, 0x00, 0x01, 0x14, 0x00, 0x00, 0x00,
  0x34, 0x00, 0x00, 0x00, 0x0d, 0x00, 0x00, 0x00, 0x00, 0x00, 0x00, 0x09,
  0x3c, 0x00, 0x00, 0x00, 0x6c, 0xf8, 0xff, 0xff, 0x08, 0x00, 0x00, 0x00,
  0x14, 0x00, 0x00, 0x00, 0x01, 0x00, 0x00, 0x00, 0x00, 0x00, 0x00, 0x00,
  0x00, 0x00, 0x00, 0x00, 0x00, 0x00, 0x00, 0x00, 0x01, 0x00, 0x00, 0x00,
  0xa2, 0x41, 0x4e, 0x3b, 0x0e, 0x00, 0x00, 0x00, 0x61, 0x72, 0x69, 0x74,
  0x68, 0x2e, 0x63, 0x6f, 0x6e, 0x73, 0x74, 0x61, 0x6e, 0x74, 0x00, 0x00,
  0x02, 0x00, 0x00, 0x00, 0x10, 0x00, 0x00, 0x00, 0x10, 0x00, 0x00, 0x00,
  0xe2, 0xf8, 0xff, 0xff, 0x00, 0x00, 0x00, 0x01, 0x14, 0x00, 0x00, 0x00,
  0x34, 0x00, 0x00, 0x00, 0x0c, 0x00, 0x00, 0x00, 0x00, 0x00, 0x00, 0x09,
  0x3c, 0x00, 0x00, 0x00, 0xcc, 0xf8, 0xff, 0xff, 0x08, 0x00, 0x00, 0x00,
  0x14, 0x00, 0x00, 0x00, 0x01, 0x00, 0x00, 0x00, 0x00, 0x00, 0x00, 0x00,
  0x00, 0x00, 0x00, 0x00, 0x00, 0x00, 0x00, 0x00, 0x01, 0x00, 0x00, 0x00,
  0x15, 0xde, 0x2b, 0x3b, 0x0f, 0x00, 0x00, 0x00, 0x61, 0x72, 0x69, 0x74,
  0x68, 0x2e, 0x63, 0x6f, 0x6e, 0x73, 0x74, 0x61, 0x6e, 0x74, 0x31, 0x00,
  0x02, 0x00, 0x00, 0x00, 0x10, 0x00, 0x00, 0x00, 0x10, 0x00, 0x00, 0x00,
  0x42, 0xf9, 0xff, 0xff, 0x00, 0x00, 0x00, 0x01, 0x14, 0x00, 0x00, 0x00,
  0x34, 0x00, 0x00, 0x00, 0x0b, 0x00, 0x00, 0x00, 0x00, 0x00, 0x00, 0x09,
  0x3c, 0x00, 0x00, 0x00, 0x2c, 0xf9, 0xff, 0xff, 0x08, 0x00, 0x00, 0x00,
  0x14, 0x00, 0x00, 0x00, 0x01, 0x00, 0x00, 0x00, 0x00, 0x00, 0x00, 0x00,
  0x00, 0x00, 0x00, 0x00, 0x00, 0x00, 0x00, 0x00, 0x01, 0x00, 0x00, 0x00,
  0xe0, 0xfa, 0x61, 0x3b, 0x0f, 0x00, 0x00, 0x00, 0x61, 0x72, 0x69, 0x74,
  0x68, 0x2e, 0x63, 0x6f, 0x6e, 0x73, 0x74, 0x61, 0x6e, 0x74, 0x32, 0x00,
  0x02, 0x00, 0x00, 0x00, 0x10, 0x00, 0x00, 0x00, 0x10, 0x00, 0x00, 0x00,
  0xa2, 0xf9, 0xff, 0xff, 0x00, 0x00, 0x00, 0x01, 0x14, 0x00, 0x00, 0x00,
  0x34, 0x00, 0x00, 0x00, 0x0a, 0x00, 0x00, 0x00, 0x00, 0x00, 0x00, 0x09,
  0x3c, 0x00, 0x00, 0x00, 0x8c, 0xf9, 0xff, 0xff, 0x08, 0x00, 0x00, 0x00,
  0x14, 0x00, 0x00, 0x00, 0x01, 0x00, 0x00, 0x00, 0x00, 0x00, 0x00, 0x00,
  0x00, 0x00, 0x00, 0x00, 0x00, 0x00, 0x00, 0x00, 0x01, 0x00, 0x00, 0x00,
  0x27, 0x8f, 0x31, 0x3b, 0x0f, 0x00, 0x00, 0x00, 0x61, 0x72, 0x69, 0x74,
  0x68, 0x2e, 0x63, 0x6f, 0x6e, 0x73, 0x74, 0x61, 0x6e, 0x74, 0x33, 0x00,
  0x02, 0x00, 0x00, 0x00, 0x10, 0x00, 0x00, 0x00, 0x10, 0x00, 0x00, 0x00,
  0x02, 0xfa, 0xff, 0xff, 0x00, 0x00, 0x00, 0x01, 0x14, 0x00, 0x00, 0x00,
  0x34, 0x00, 0x00, 0x00, 0x07, 0x00, 0x00, 0x00, 0x00, 0x00, 0x00, 0x02,
  0x40, 0x00, 0x00, 0x00, 0xec, 0xf9, 0xff, 0xff, 0x08, 0x00, 0x00, 0x00,
  0x14, 0x00, 0x00, 0x00, 0x01, 0x00, 0x00, 0x00, 0x00, 0x00, 0x00, 0x00,
  0x00, 0x00, 0x00, 0x00, 0x00, 0x00, 0x00, 0x00, 0x01, 0x00, 0x00, 0x00,
  0x3a, 0x46, 0x8e, 0x36, 0x10, 0x00, 0x00, 0x00, 0x61, 0x72, 0x69, 0x74,
  0x68, 0x2e, 0x63, 0x6f, 0x6e, 0x73, 0x74, 0x61, 0x6e, 0x74, 0x34, 0x32,
  0x00, 0x00, 0x00, 0x00, 0x01, 0x00, 0x00, 0x00, 0x10, 0x00, 0x00, 0x00,
  0x62, 0xfa, 0xff, 0xff, 0x00, 0x00, 0x00, 0x01, 0x14, 0x00, 0x00, 0x00,
  0x34, 0x00, 0x00, 0x00, 0x07, 0x00, 0x00, 0x00, 0x00, 0x00, 0x00, 0x02,
  0x40, 0x00, 0x00, 0x00, 0x4c, 0xfa, 0xff, 0xff, 0x08, 0x00, 0x00, 0x00,
  0x14, 0x00, 0x00, 0x00, 0x01, 0x00, 0x00, 0x00, 0x00, 0x00, 0x00, 0x00,
  0x00, 0x00, 0x00, 0x00, 0x00, 0x00, 0x00, 0x00, 0x01, 0x00, 0x00, 0x00,
  0xbc, 0x8c, 0x8e, 0x36, 0x10, 0x00, 0x00, 0x00, 0x61, 0x72, 0x69, 0x74,
  0x68, 0x2e, 0x63, 0x6f, 0x6e, 0x73, 0x74, 0x61, 0x6e, 0x74, 0x34, 0x31,
  0x00, 0x00, 0x00, 0x00, 0x01, 0x00, 0x00, 0x00, 0x10, 0x00, 0x00, 0x00,
  0xc2, 0xfa, 0xff, 0xff, 0x00, 0x00, 0x00, 0x01, 0x14, 0x00, 0x00, 0x00,
  0x30, 0x00, 0x00, 0x00, 0x07, 0x00, 0x00, 0x00, 0x00, 0x00, 0x00, 0x02,
  0x38, 0x00, 0x00, 0x00, 0xac, 0xfa, 0xff, 0xff, 0x08, 0x00, 0x00, 0x00,
  0x10, 0x00, 0x00, 0x00, 0x01, 0x00, 0x00, 0x00, 0x00, 0x00, 0x00, 0x00,
  0x00, 0x00, 0x00, 0x00, 0x01, 0x00, 0x00, 0x00, 0xf0, 0x83, 0x8e, 0x36,
  0x0f, 0x00, 0x00, 0x00, 0x61, 0x72, 0x69, 0x74, 0x68, 0x2e, 0x63, 0x6f,
  0x6e, 0x73, 0x74, 0x61, 0x6e, 0x74, 0x34, 0x00, 0x01, 0x00, 0x00, 0x00,
  0x10, 0x00, 0x00, 0x00, 0x1a, 0xfb, 0xff, 0xff, 0x00, 0x00, 0x00, 0x01,
  0x14, 0x00, 0x00, 0x00, 0x30, 0x00, 0x00, 0x00, 0x06, 0x00, 0x00, 0x00,
  0x00, 0x00, 0x00, 0x02, 0x38, 0x00, 0x00, 0x00, 0x04, 0xfb, 0xff, 0xff,
  0x08, 0x00, 0x00, 0x00, 0x10, 0x00, 0x00, 0x00, 0x01, 0x00, 0x00, 0x00,
  0x00, 0x00, 0x00, 0x00, 0x00, 0x00, 0x00, 0x00, 0x01, 0x00, 0x00, 0x00,
  0xdf, 0x66, 0x8e, 0x36, 0x0f, 0x00, 0x00, 0x00, 0x61, 0x72, 0x69, 0x74,
  0x68, 0x2e, 0x63, 0x6f, 0x6e, 0x73, 0x74, 0x61, 0x6e, 0x74, 0x35, 0x00,
  0x01, 0x00, 0x00, 0x00, 0x10, 0x00, 0x00, 0x00, 0x72, 0xfb, 0xff, 0xff,
  0x00, 0x00, 0x00, 0x01, 0x14, 0x00, 0x00, 0x00, 0x34, 0x00, 0x00, 0x00,
  0x05, 0x00, 0x00, 0x00, 0x00, 0x00, 0x00, 0x09, 0x4c, 0x00, 0x00, 0x00,
  0x5c, 0xfb, 0xff, 0xff, 0x08, 0x00, 0x00, 0x00, 0x14, 0x00, 0x00, 0x00,
  0x01, 0x00, 0x00, 0x00, 0x00, 0x00, 0x00, 0x00, 0x00, 0x00, 0x00, 0x00,
  0x00, 0x00, 0x00, 0x00, 0x01, 0x00, 0x00, 0x00, 0x98, 0xd6, 0x6d, 0x3b,
  0x1c, 0x00, 0x00, 0x00, 0x6d, 0x6f, 0x64, 0x65, 0x6c, 0x2f, 0x64, 0x65,
  0x6e, 0x73, 0x65, 0x2f, 0x54, 0x65, 0x6e, 0x73, 0x6f, 0x72, 0x64, 0x6f,
  0x74, 0x2f, 0x4d, 0x61, 0x74, 0x4d, 0x75, 0x6c, 0x00, 0x00, 0x00, 0x00,
  0x02, 0x00, 0x00, 0x00, 0x0b, 0x00, 0x00, 0x00, 0x10, 0x00, 0x00, 0x00,
  0xe2, 0xfb, 0xff, 0xff, 0x00, 0x00, 0x00, 0x01, 0x14, 0x00, 0x00, 0x00,
  0xa4, 0x01, 0x00, 0x00, 0x04, 0x00, 0x00, 0x00, 0x00, 0x00, 0x00, 0x02,
  0xc0, 0x01, 0x00, 0x00, 0xcc, 0xfb, 0xff, 0xff, 0x08, 0x00, 0x00, 0x00,
  0x08, 0x01, 0x00, 0x00, 0x20, 0x00, 0x00, 0x00, 0x00, 0x00, 0x00, 0x00,
  0x00, 0x00, 0x00, 0x00, 0x00, 0x00, 0x00, 0x00, 0x00, 0x00, 0x00, 0x00,
  0x00, 0x00, 0x00, 0x00, 0x00, 0x00, 0x00, 0x00, 0x00, 0x00, 0x00, 0x00,
  0x00, 0x00, 0x00, 0x00, 0x00, 0x00, 0x00, 0x00, 0x00, 0x00, 0x00, 0x00,
  0x00, 0x00, 0x00, 0x00, 0x00, 0x00, 0x00, 0x00, 0x00, 0x00, 0x00, 0x00,
  0x00, 0x00, 0x00, 0x00, 0x00, 0x00, 0x00, 0x00, 0x00, 0x00, 0x00, 0x00,
  0x00, 0x00, 0x00, 0x00, 0x00, 0x00, 0x00, 0x00, 0x00, 0x00, 0x00, 0x00,
  0x00, 0x00, 0x00, 0x00, 0x00, 0x00, 0x00, 0x00, 0x00, 0x00, 0x00, 0x00,
  0x00, 0x00, 0x00, 0x00, 0x00, 0x00, 0x00, 0x00, 0x00, 0x00, 0x00, 0x00,
  0x00, 0x00, 0x00, 0x00, 0x00, 0x00, 0x00, 0x00, 0x00, 0x00, 0x00, 0x00,
  0x00, 0x00, 0x00, 0x00, 0x00, 0x00, 0x00, 0x00, 0x00, 0x00, 0x00, 0x00,
  0x00, 0x00, 0x00, 0x00, 0x00, 0x00, 0x00, 0x00, 0x00, 0x00, 0x00, 0x00,
  0x00, 0x00, 0x00, 0x00, 0x00, 0x00, 0x00, 0x00, 0x00, 0x00, 0x00, 0x00,
  0x00, 0x00, 0x00, 0x00, 0x00, 0x00, 0x00, 0x00, 0x00, 0x00, 0x00, 0x00,
  0x00, 0x00, 0x00, 0x00, 0x00, 0x00, 0x00, 0x00, 0x00, 0x00, 0x00, 0x00,
  0x00, 0x00, 0x00, 0x00, 0x00, 0x00, 0x00, 0x00, 0x00, 0x00, 0x00, 0x00,
  0x00, 0x00, 0x00, 0x00, 0x00, 0x00, 0x00, 0x00, 0x00, 0x00, 0x00, 0x00,
  0x00, 0x00, 0x00, 0x00, 0x00, 0x00, 0x00, 0x00, 0x00, 0x00, 0x00, 0x00,
  0x00, 0x00, 0x00, 0x00, 0x00, 0x00, 0x00, 0x00, 0x00, 0x00, 0x00, 0x00,
  0x00, 0x00, 0x00, 0x00, 0x00, 0x00, 0x00, 0x00, 0x00, 0x00, 0x00, 0x00,
  0x00, 0x00, 0x00, 0x00, 0x00, 0x00, 0x00, 0x00, 0x00, 0x00, 0x00, 0x00,
  0x00, 0x00, 0x00, 0x00, 0x00, 0x00, 0x00, 0x00, 0x00, 0x00, 0x00, 0x00,
  0x20, 0x00, 0x00, 0x00, 0x5d, 0xe2, 0x2e, 0x36, 0xeb, 0x61, 0x28, 0x36,
  0x55, 0xe2, 0x2f, 0x36, 0xc0, 0xed, 0x2a, 0x36, 0x1d, 0x88, 0x2b, 0x36,
  0x1c, 0x54, 0x24, 0x36, 0xe8, 0xed, 0x2e, 0x36, 0xf2, 0x9d, 0x2a, 0x36,
  0x56, 0x0b, 0x1c, 0x36, 0x91, 0x72, 0x2d, 0x36, 0x65, 0x97, 0x08, 0x36,
  0xbd, 0xf1, 0x2d, 0x36, 0x5f, 0xa9, 0x25, 0x36, 0x4c, 0x3a, 0x24, 0x36,
  0x78, 0xd0, 0x2a, 0x36, 0x96, 0x5f, 0x2e, 0x36, 0x5d, 0xb1, 0x2e, 0x36,
  0x12, 0x8e, 0x2f, 0x36, 0x9c, 0xe5, 0x2d, 0x36, 0x32, 0xc0, 0x28, 0x36,
  0x61, 0xf6, 0x2a, 0x36, 0xf9, 0x0b, 0x29, 0x36, 0x2a, 0xa5, 0x2e, 0x36,
  0xad, 0xfe, 0x2c, 0x36, 0x9c, 0xf5, 0x2d, 0x36, 0x19, 0x9b, 0x30, 0x36,
  0x0b, 0xeb, 0x2c, 0x36, 0x90, 0xee, 0x29, 0x36, 0x72, 0xc1, 0x2e, 0x36,
  0x5e, 0x59, 0x2a, 0x36, 0x60, 0xad, 0x2a, 0x36, 0xa8, 0xca, 0x28, 0x36,
  0x23, 0x00, 0x00, 0x00, 0x6d, 0x6f, 0x64, 0x65, 0x6c, 0x2f, 0x63, 0x6f,
  0x6e, 0x76, 0x32, 0x64, 0x2f, 0x42, 0x69, 0x61, 0x73, 0x41, 0x64, 0x64,
  0x2f, 0x52, 0x65, 0x61, 0x64, 0x56, 0x61, 0x72, 0x69, 0x61, 0x62, 0x6c,
  0x65, 0x4f, 0x70, 0x00, 0x01, 0x00, 0x00, 0x00, 0x20, 0x00, 0x00, 0x00,
  0xc2, 0xfd, 0xff, 0xff, 0x00, 0x00, 0x00, 0x01, 0x14, 0x00, 0x00, 0x00,
  0xa4, 0x01, 0x00, 0x00, 0x03, 0x00, 0x00, 0x00, 0x00, 0x00, 0x00, 0x09,
  0xc4, 0x01, 0x00, 0x00, 0xac, 0xfd, 0xff, 0xff, 0x08, 0x00, 0x00, 0x00,
  0x08, 0x01, 0x00, 0x00, 0x20, 0x00, 0x00, 0x00, 0x00, 0x00, 0x00, 0x00,
  0x00, 0x00, 0x00, 0x00, 0x00, 0x00, 0x00, 0x00, 0x00, 0x00, 0x00, 0x00,
  0x00, 0x00, 0x00, 0x00, 0x00, 0x00, 0x00, 0x00, 0x00, 0x00, 0x00, 0x00,
  0x00, 0x00, 0x00, 0x00, 0x00, 0x00, 0x00, 0x00, 0x00, 0x00, 0x00, 0x00,
  0x00, 0x00, 0x00, 0x00, 0x00, 0x00, 0x00, 0x00, 0x00, 0x00, 0x00, 0x00,
  0x00, 0x00, 0x00, 0x00, 0x00, 0x00, 0x00, 0x00, 0x00, 0x00, 0x00, 0x00,
  0x00, 0x00, 0x00, 0x00, 0x00, 0x00, 0x00, 0x00, 0x00, 0x00, 0x00, 0x00,
  0x00, 0x00, 0x00, 0x00, 0x00, 0x00, 0x00, 0x00, 0x00, 0x00, 0x00, 0x00,
  0x00, 0x00, 0x00, 0x00, 0x00, 0x00, 0x00, 0x00, 0x00, 0x00, 0x00, 0x00,
  0x00, 0x00, 0x00, 0x00, 0x00, 0x00, 0x00, 0x00, 0x00, 0x00, 0x00, 0x00,
  0x00, 0x00, 0x00, 0x00, 0x00, 0x00, 0x00, 0x00, 0x00, 0x00, 0x00, 0x00,
  0x00, 0x00, 0x00, 0x00, 0x00, 0x00, 0x00, 0x00, 0x00, 0x00, 0x00, 0x00,
  0x00, 0x00, 0x00, 0x00, 0x00, 0x00, 0x00, 0x00, 0x00, 0x00, 0x00, 0x00,
  0x00, 0x00, 0x00, 0x00, 0x00, 0x00, 0x00, 0x00, 0x00, 0x00, 0x00, 0x00,
  0x00, 0x00, 0x00, 0x00, 0x00, 0x00, 0x00, 0x00, 0x00, 0x00, 0x00, 0x00,
  0x00, 0x00, 0x00, 0x00, 0x00, 0x00, 0x00, 0x00, 0x00, 0x00, 0x00, 0x00,
  0x00, 0x00, 0x00, 0x00, 0x00, 0x00, 0x00, 0x00, 0x00, 0x00, 0x00, 0x00,
  0x00, 0x00, 0x00, 0x00, 0x00, 0x00, 0x00, 0x00, 0x00, 0x00, 0x00, 0x00,
  0x00, 0x00, 0x00, 0x00, 0x00, 0x00, 0x00, 0x00, 0x00, 0x00, 0x00, 0x00,
  0x00, 0x00, 0x00, 0x00, 0x00, 0x00, 0x00, 0x00, 0x00, 0x00, 0x00, 0x00,
  0x00, 0x00, 0x00, 0x00, 0x00, 0x00, 0x00, 0x00, 0x00, 0x00, 0x00, 0x00,
  0x00, 0x00, 0x00, 0x00, 0x00, 0x00, 0x00, 0x00, 0x00, 0x00, 0x00, 0x00,
  0x20, 0x00, 0x00, 0x00, 0x5e, 0xe2, 0x2e, 0x36, 0xec, 0x61, 0x28, 0x36,
  0x56, 0xe2, 0x2f, 0x36, 0xc1, 0xed, 0x2a, 0x36, 0x1e, 0x88, 0x2b, 0x36,
  0x1d, 0x54, 0x24, 0x36, 0xe9, 0xed, 0x2e, 0x36, 0xf3, 0x9d, 0x2a, 0x36,
  0x57, 0x0b, 0x1c, 0x36, 0x92, 0x72, 0x2d, 0x36, 0x66, 0x97, 0x08, 0x36,
  0xbe, 0xf1, 0x2d, 0x36, 0x60, 0xa9, 0x25, 0x36, 0x4d, 0x3a, 0x24, 0x36,
  0x79, 0xd0, 0x2a, 0x36, 0x97, 0x5f, 0x2e, 0x36, 0x5e, 0xb1, 0x2e, 0x36,
  0x13, 0x8e, 0x2f, 0x36, 0x9d, 0xe5, 0x2d, 0x36, 0x33, 0xc0, 0x28, 0x36,
  0x62, 0xf6, 0x2a, 0x36, 0xfa, 0x0b, 0x29, 0x36, 0x2b, 0xa5, 0x2e, 0x36,
  0xae, 0xfe, 0x2c, 0x36, 0x9d, 0xf5, 0x2d, 0x36, 0x1a, 0x9b, 0x30, 0x36,
  0x0c, 0xeb, 0x2c, 0x36, 0x91, 0xee, 0x29, 0x36, 0x73, 0xc1, 0x2e, 0x36,
  0x5f, 0x59, 0x2a, 0x36, 0x61, 0xad, 0x2a, 0x36, 0xa9, 0xca, 0x28, 0x36,
  0x25, 0x00, 0x00, 0x00, 0x6d, 0x6f, 0x64, 0x65, 0x6c, 0x2f, 0x63, 0x6f,
  0x6e, 0x76, 0x32, 0x64, 0x2f, 0x52, 0x65, 0x6c, 0x75, 0x3b, 0x6d, 0x6f,
  0x64, 0x65, 0x6c, 0x2f, 0x63, 0x6f, 0x6e, 0x76, 0x32, 0x64, 0x2f, 0x43,
  0x6f, 0x6e, 0x76, 0x32, 0x44, 0x00, 0x00, 0x00, 0x04, 0x00, 0x00, 0x00,
  0x20, 0x00, 0x00, 0x00, 0x05, 0x00, 0x00, 0x00, 0x05, 0x00, 0x00, 0x00,
  0x01, 0x00, 0x00, 0x00, 0xb2, 0xff, 0xff, 0xff, 0x00, 0x00, 0x00, 0x01,
  0x18, 0x00, 0x00, 0x00, 0x18, 0x00, 0x00, 0x00, 0x02, 0x00, 0x00, 0x00,
  0x00, 0x00, 0x00, 0x02, 0x2c, 0x00, 0x00, 0x00, 0x04, 0x00, 0x04, 0x00,
  0x04, 0x00, 0x00, 0x00, 0x1b, 0x00, 0x00, 0x00, 0x6d, 0x6f, 0x64, 0x65,
  0x6c, 0x2f, 0x72, 0x65, 0x73, 0x68, 0x61, 0x70, 0x65, 0x2f, 0x52, 0x65,
  0x73, 0x68, 0x61, 0x70, 0x65, 0x2f, 0x73, 0x68, 0x61, 0x70, 0x65, 0x00,
  0x01, 0x00, 0x00, 0x00, 0x03, 0x00, 0x00, 0x00, 0x00, 0x00, 0x16, 0x00,
  0x1c, 0x00, 0x18, 0x00, 0x17, 0x00, 0x10, 0x00, 0x0c, 0x00, 0x08, 0x00,
  0x00, 0x00, 0x00, 0x00, 0x00, 0x00, 0x07, 0x00, 0x16, 0x00, 0x00, 0x00,
  0x00, 0x00, 0x00, 0x01, 0x20, 0x00, 0x00, 0x00, 0x40, 0x00, 0x00, 0x00,
  0x01, 0x00, 0x00, 0x00, 0x00, 0x00, 0x00, 0x09, 0x4c, 0x00, 0x00, 0x00,
  0x0c, 0x00, 0x0c, 0x00, 0x00, 0x00, 0x00, 0x00, 0x08, 0x00, 0x04, 0x00,
  0x0c, 0x00, 0x00, 0x00, 0x08, 0x00, 0x00, 0x00, 0x14, 0x00, 0x00, 0x00,
  0x01, 0x00, 0x00, 0x00, 0x80, 0xff, 0xff, 0xff, 0xff, 0xff, 0xff, 0xff,
  0x00, 0x00, 0x00, 0x00, 0x01, 0x00, 0x00, 0x00, 0xfe, 0xff, 0x7f, 0x3f,
  0x13, 0x00, 0x00, 0x00, 0x73, 0x65, 0x72, 0x76, 0x69, 0x6e, 0x67, 0x5f,
  0x64, 0x65, 0x66, 0x61, 0x75, 0x6c, 0x74, 0x5f, 0x78, 0x3a, 0x30, 0x00,
  0x04, 0x00, 0x00, 0x00, 0x01, 0x00, 0x00, 0x00, 0x20, 0x00, 0x00, 0x00,
  0x60, 0x00, 0x00, 0x00, 0x01, 0x00, 0x00, 0x00, 0x05, 0x00, 0x00, 0x00,
  0x64, 0x00, 0x00, 0x00, 0x48, 0x00, 0x00, 0x00, 0x2c, 0x00, 0x00, 0x00,
  0x18, 0x00, 0x00, 0x00, 0x04, 0x00, 0x00, 0x00, 0xbc, 0xff, 0xff, 0xff,
  0x19, 0x00, 0x00, 0x00, 0x02, 0x00, 0x00, 0x00, 0x00, 0x00, 0x00, 0x19,
  0xcc, 0xff, 0xff, 0xff, 0x09, 0x00, 0x00, 0x00, 0x05, 0x00, 0x00, 0x00,
  0x00, 0x00, 0x00, 0x09, 0xf4, 0xff, 0xff, 0xff, 0x2c, 0x00, 0x00, 0x00,
  0x00, 0x00, 0x00, 0x2c, 0x0c, 0x00, 0x0c, 0x00, 0x0b, 0x00, 0x00, 0x00,
  0x00, 0x00, 0x04, 0x00, 0x0c, 0x00, 0x00, 0x00, 0x16, 0x00, 0x00, 0x00,
  0x00, 0x00, 0x00, 0x16, 0x0c, 0x00, 0x10, 0x00, 0x0f, 0x00, 0x00, 0x00,
  0x08, 0x00, 0x04, 0x00, 0x0c, 0x00, 0x00, 0x00, 0x03, 0x00, 0x00, 0x00,
  0x03, 0x00, 0x00, 0x00, 0x00, 0x00, 0x00, 0x03
};
const int model_data_len = 9536;
